{
  "version": "1.0",
  "truncation": null,
  "padding": null,
  "added_tokens": [
    {
      "id": 0,
      "content": "<|im_start|>",
      "single_word": false,
      "lstrip": false,
      "rstrip": false,
      "normalized": false,
      "special": true
    },
    {
      "id": 1,
      "content": "<|im_end|>",
      "single_word": false,
      "lstrip": false,
      "rstrip": false,
      "normalized": false,
      "special": true
    },
    {
      "id": 2,
      "content": "<bos>",
      "single_word": false,
      "lstrip": false,
      "rstrip": false,
      "normalized": false,
      "special": true
    },
    {
      "id": 3,
      "content": "<eos>",
      "single_word": false,
      "lstrip": false,
      "rstrip": false,
      "normalized": false,
      "special": true
    },
    {
      "id": 4,
      "content": "<pad>",
      "single_word": false,
      "lstrip": false,
      "rstrip": false,
      "normalized": false,
      "special": true
    },
    {
      "id": 5,
      "content": "<unk>",
      "single_word": false,
      "lstrip": false,
      "rstrip": false,
      "normalized": false,
      "special": true
    },
    {
      "id": 6,
      "content": "==",
      "single_word": false,
      "lstrip": false,
      "rstrip": false,
      "normalized": false,
      "special": true
    },
    {
      "id": 7,
      "content": "!=",
      "single_word": false,
      "lstrip": false,
      "rstrip": false,
      "normalized": false,
      "special": true
    },
    {
      "id": 8,
      "content": ">=",
      "single_word": false,
      "lstrip": false,
      "rstrip": false,
      "normalized": false,
      "special": true
    },
    {
      "id": 9,
      "content": "<=",
      "single_word": false,
      "lstrip": false,
      "rstrip": false,
      "normalized": false,
      "special": true
    },
    {
      "id": 10,
      "content": "+=",
      "single_word": false,
      "lstrip": false,
      "rstrip": false,
      "normalized": false,
      "special": true
    },
    {
      "id": 11,
      "content": "-=",
      "single_word": false,
      "lstrip": false,
      "rstrip": false,
      "normalized": false,
      "special": true
    },
    {
      "id": 12,
      "content": "*=",
      "single_word": false,
      "lstrip": false,
      "rstrip": false,
      "normalized": false,
      "special": true
    },
    {
      "id": 13,
      "content": "/=",
      "single_word": false,
      "lstrip": false,
      "rstrip": false,
      "normalized": false,
      "special": true
    },
    {
      "id": 14,
      "content": "//",
      "single_word": false,
      "lstrip": false,
      "rstrip": false,
      "normalized": false,
      "special": true
    },
    {
      "id": 15,
      "content": "**",
      "single_word": false,
      "lstrip": false,
      "rstrip": false,
      "normalized": false,
      "special": true
    },
    {
      "id": 16,
      "content": "->",
      "single_word": false,
      "lstrip": false,
      "rstrip": false,
      "normalized": false,
      "special": true
    },
    {
      "id": 17,
      "content": "=>",
      "single_word": false,
      "lstrip": false,
      "rstrip": false,
      "normalized": false,
      "special": true
    },
    {
      "id": 18,
      "content": "0",
      "single_word": false,
      "lstrip": false,
      "rstrip": false,
      "normalized": false,
      "special": true
    },
    {
      "id": 19,
      "content": "1",
      "single_word": false,
      "lstrip": false,
      "rstrip": false,
      "normalized": false,
      "special": true
    },
    {
      "id": 20,
      "content": "2",
      "single_word": false,
      "lstrip": false,
      "rstrip": false,
      "normalized": false,
      "special": true
    },
    {
      "id": 21,
      "content": "3",
      "single_word": false,
      "lstrip": false,
      "rstrip": false,
      "normalized": false,
      "special": true
    },
    {
      "id": 22,
      "content": "4",
      "single_word": false,
      "lstrip": false,
      "rstrip": false,
      "normalized": false,
      "special": true
    },
    {
      "id": 23,
      "content": "5",
      "single_word": false,
      "lstrip": false,
      "rstrip": false,
      "normalized": false,
      "special": true
    },
    {
      "id": 24,
      "content": "6",
      "single_word": false,
      "lstrip": false,
      "rstrip": false,
      "normalized": false,
      "special": true
    },
    {
      "id": 25,
      "content": "7",
      "single_word": false,
      "lstrip": false,
      "rstrip": false,
      "normalized": false,
      "special": true
    },
    {
      "id": 26,
      "content": "8",
      "single_word": false,
      "lstrip": false,
      "rstrip": false,
      "normalized": false,
      "special": true
    },
    {
      "id": 27,
      "content": "9",
      "single_word": false,
      "lstrip": false,
      "rstrip": false,
      "normalized": false,
      "special": true
    }
  ],
  "normalizer": {
    "type": "Sequence",
    "normalizers": [
      {
        "type": "NFC"
      }
    ]
  },
  "pre_tokenizer": {
    "type": "Sequence",
    "pretokenizers": [
      {
        "type": "ByteLevel",
        "add_prefix_space": false,
        "trim_offsets": true,
        "use_regex": true
      },
      {
        "type": "Digits",
        "individual_digits": true
      }
    ]
  },
  "post_processor": {
    "type": "ByteLevel",
    "add_prefix_space": true,
    "trim_offsets": true,
    "use_regex": true
  },
  "decoder": {
    "type": "ByteLevel",
    "add_prefix_space": true,
    "trim_offsets": true,
    "use_regex": true
  },
  "model": {
    "type": "BPE",
    "dropout": null,
    "unk_token": "<unk>",
    "continuing_subword_prefix": null,
    "end_of_word_suffix": null,
    "fuse_unk": false,
    "byte_fallback": false,
    "ignore_merges": false,
    "vocab": {
      "<|im_start|>": 0,
      "<|im_end|>": 1,
      "<bos>": 2,
      "<eos>": 3,
      "<pad>": 4,
      "<unk>": 5,
      "==": 6,
      "!=": 7,
      ">=": 8,
      "<=": 9,
      "+=": 10,
      "-=": 11,
      "*=": 12,
      "/=": 13,
      "//": 14,
      "**": 15,
      "->": 16,
      "=>": 17,
      "0": 18,
      "1": 19,
      "2": 20,
      "3": 21,
      "4": 22,
      "5": 23,
      "6": 24,
      "7": 25,
      "8": 26,
      "9": 27,
      "!": 28,
      "\"": 29,
      "#": 30,
      "$": 31,
      "%": 32,
      "&": 33,
      "'": 34,
      "(": 35,
      ")": 36,
      "*": 37,
      "+": 38,
      ",": 39,
      "-": 40,
      ".": 41,
      "/": 42,
      ":": 43,
      ";": 44,
      "<": 45,
      "=": 46,
      ">": 47,
      "?": 48,
      "@": 49,
      "A": 50,
      "B": 51,
      "C": 52,
      "D": 53,
      "E": 54,
      "F": 55,
      "G": 56,
      "H": 57,
      "I": 58,
      "J": 59,
      "K": 60,
      "L": 61,
      "M": 62,
      "N": 63,
      "O": 64,
      "P": 65,
      "Q": 66,
      "R": 67,
      "S": 68,
      "T": 69,
      "U": 70,
      "V": 71,
      "W": 72,
      "X": 73,
      "Y": 74,
      "Z": 75,
      "[": 76,
      "\\": 77,
      "]": 78,
      "^": 79,
      "_": 80,
      "`": 81,
      "a": 82,
      "b": 83,
      "c": 84,
      "d": 85,
      "e": 86,
      "f": 87,
      "g": 88,
      "h": 89,
      "i": 90,
      "j": 91,
      "k": 92,
      "l": 93,
      "m": 94,
      "n": 95,
      "o": 96,
      "p": 97,
      "q": 98,
      "r": 99,
      "s": 100,
      "t": 101,
      "u": 102,
      "v": 103,
      "w": 104,
      "x": 105,
      "y": 106,
      "z": 107,
      "{": 108,
      "|": 109,
      "}": 110,
      "~": 111,
      "¡": 112,
      "¢": 113,
      "£": 114,
      "¤": 115,
      "¥": 116,
      "¦": 117,
      "§": 118,
      "¨": 119,
      "©": 120,
      "ª": 121,
      "«": 122,
      "¬": 123,
      "®": 124,
      "¯": 125,
      "°": 126,
      "±": 127,
      "²": 128,
      "³": 129,
      "´": 130,
      "µ": 131,
      "¶": 132,
      "·": 133,
      "¸": 134,
      "¹": 135,
      "º": 136,
      "»": 137,
      "¼": 138,
      "½": 139,
      "¾": 140,
      "¿": 141,
      "Â": 142,
      "Ã": 143,
      "Ä": 144,
      "Å": 145,
      "Æ": 146,
      "Ç": 147,
      "È": 148,
      "É": 149,
      "Ê": 150,
      "Ë": 151,
      "Ì": 152,
      "Í": 153,
      "Î": 154,
      "Ï": 155,
      "Ð": 156,
      "Ñ": 157,
      "Ò": 158,
      "Ó": 159,
      "Ô": 160,
      "Õ": 161,
      "Ö": 162,
      "×": 163,
      "Ø": 164,
      "Ù": 165,
      "Ú": 166,
      "Û": 167,
      "Ý": 168,
      "ß": 169,
      "à": 170,
      "á": 171,
      "â": 172,
      "ã": 173,
      "ä": 174,
      "å": 175,
      "æ": 176,
      "ç": 177,
      "è": 178,
      "é": 179,
      "ê": 180,
      "ë": 181,
      "ì": 182,
      "í": 183,
      "î": 184,
      "ï": 185,
      "ð": 186,
      "Ā": 187,
      "ā": 188,
      "Ă": 189,
      "ă": 190,
      "Ą": 191,
      "Ĉ": 192,
      "ĉ": 193,
      "Ċ": 194,
      "Č": 195,
      "č": 196,
      "ė": 197,
      "Ę": 198,
      "ę": 199,
      "ğ": 200,
      "Ġ": 201,
      "Ģ": 202,
      "ģ": 203,
      "Ĥ": 204,
      "ĥ": 205,
      "Ħ": 206,
      "ħ": 207,
      "Ĩ": 208,
      "ĩ": 209,
      "Ī": 210,
      "ī": 211,
      "Ĭ": 212,
      "ĭ": 213,
      "Į": 214,
      "į": 215,
      "İ": 216,
      "ı": 217,
      "Ĳ": 218,
      "ĳ": 219,
      "Ĵ": 220,
      "ĵ": 221,
      "Ķ": 222,
      "ķ": 223,
      "ĸ": 224,
      "Ĺ": 225,
      "ĺ": 226,
      "Ļ": 227,
      "ļ": 228,
      "Ľ": 229,
      "ľ": 230,
      "Ŀ": 231,
      "ŀ": 232,
      "Ł": 233,
      "ł": 234,
      "Ń": 235,
      "Ġt": 236,
      "Ġa": 237,
      "in": 238,
      "he": 239,
      "re": 240,
      "on": 241,
      "Ġthe": 242,
      "Ġs": 243,
      "er": 244,
      "at": 245,
      "en": 246,
      "Ġc": 247,
      "Ġo": 248,
      "is": 249,
      "es": 250,
      "ĠĠ": 251,
      "nd": 252,
      "ing": 253,
      "it": 254,
      "Ġw": 255,
      "al": 256,
      "or": 257,
      "an": 258,
      "ou": 259,
      "Ġp": 260,
      "Ġf": 261,
      "ar": 262,
      "Ġm": 263,
      "Ġand": 264,
      "Ġto": 265,
      "Ġb": 266,
      "ion": 267,
      "Ġin": 268,
      "Ġd": 269,
      "im": 270,
      "Ġof": 271,
      "le": 272,
      "st": 273,
      "ed": 274,
      "ic": 275,
      "ent": 276,
      "ct": 277,
      "Ġre": 278,
      "ro": 279,
      "Ġe": 280,
      "Ġth": 281,
      "as": 282,
      "ve": 283,
      "Ġn": 284,
      "Ġy": 285,
      "Ġl": 286,
      "et": 287,
      "Ġh": 288,
      "|>": 289,
      "<|": 290,
      "om": 291,
      "us": 292,
      "Ġyou": 293,
      "Ġis": 294,
      "ĠĠĠĠ": 295,
      "ly": 296,
      "id": 297,
      "ation": 298,
      "ce": 299,
      "ll": 300,
      "Ġg": 301,
      "Ġst": 302,
      "art": 303,
      "ut": 304,
      "end": 305,
      "ow": 306,
      "ot": 307,
      "Ġbe": 308,
      "Ġcon": 309,
      "Ġthat": 310,
      "ig": 311,
      "ist": 312,
      "Ġfor": 313,
      "ĠI": 314,
      "ch": 315,
      "ur": 316,
      "ra": 317,
      "if": 318,
      "ĠT": 319,
      "Ġor": 320,
      "se": 321,
      "ver": 322,
      "Ġit": 323,
      "ith": 324,
      "Ġon": 325,
      "ld": 326,
      "Ġpro": 327,
      "ul": 328,
      "ate": 329,
      "Ġas": 330,
      "ant": 331,
      "um": 332,
      "'s": 333,
      "un": 334,
      "Ġcan": 335,
      "Ġwith": 336,
      "Ġex": 337,
      "ay": 338,
      "start": 339,
      "am": 340,
      "ke": 341,
      "ir": 342,
      "Ġan": 343,
      "ore": 344,
      "Ġv": 345,
      "ers": 346,
      "Ġwe": 347,
      "her": 348,
      "ive": 349,
      "il": 350,
      "ge": 351,
      "ess": 352,
      "qu": 353,
      "ab": 354,
      "ĠĠĠ": 355,
      "ol": 356,
      "ad": 357,
      "Ġwh": 358,
      "Ġare": 359,
      "Ġcom": 360,
      "Ġde": 361,
      "ect": 362,
      "Ġyour": 363,
      "Ġsu": 364,
      "ity": 365,
      "od": 366,
      "ass": 367,
      "res": 368,
      "ment": 369,
      "est": 370,
      "pp": 371,
      "Ġ=": 372,
      "Ġint": 373,
      "ri": 374,
      "igh": 375,
      "th": 376,
      "Ġus": 377,
      "ĠA": 378,
      "Ġ(": 379,
      "Ġhe": 380,
      "ould": 381,
      "Ġne": 382,
      "ain": 383,
      "Ġch": 384,
      "ple": 385,
      "ial": 386,
      "ies": 387,
      "iv": 388,
      "Ġse": 389,
      "ĠThe": 390,
      "Ġ\"": 391,
      "ac": 392,
      "ction": 393,
      "pl": 394,
      "Ġal": 395,
      "Ġha": 396,
      "em": 397,
      "ere": 398,
      "ight": 399,
      "Ġr": 400,
      "ill": 401,
      "nt": 402,
      "ĠS": 403,
      "ort": 404,
      "pt": 405,
      "pe": 406,
      "os": 407,
      "istant": 408,
      "Ġsh": 409,
      "Ġle": 410,
      "Ġmore": 411,
      "Ġthis": 412,
      "oc": 413,
      "Ġma": 414,
      "Ġim": 415,
      "user": 416,
      "act": 417,
      "``": 418,
      "ue": 419,
      "Ġen": 420,
      "assistant": 421,
      "his": 422,
      "Ġwor": 423,
      "rom": 424,
      "ations": 425,
      "ĠC": 426,
      "ĊĠĠĠĠ": 427,
      "Ġme": 428,
      "ud": 429,
      "Ġat": 430,
      "ure": 431,
      "ence": 432,
      "all": 433,
      "Ġby": 434,
      "ust": 435,
      "iz": 436,
      "ions": 437,
      "Ġu": 438,
      "Ġnot": 439,
      "ide": 440,
      "king": 441,
      "and": 442,
      "per": 443,
      "age": 444,
      "out": 445,
      "ine": 446,
      "ical": 447,
      "ter": 448,
      "Ġres": 449,
      "Ġfrom": 450,
      "ach": 451,
      "ff": 452,
      "ĊĠĠĠ": 453,
      "ĠW": 454,
      "el": 455,
      "Ġab": 456,
      "Ġhave": 457,
      "are": 458,
      "able": 459,
      "Ġad": 460,
      "Ġwhe": 461,
      "ance": 462,
      "ome": 463,
      "ult": 464,
      "ind": 465,
      "ĠThis": 466,
      "Ġar": 467,
      "ĠP": 468,
      "Ġtheir": 469,
      "Ġfe": 470,
      "Ġdat": 471,
      "orm": 472,
      "ich": 473,
      "ther": 474,
      "int": 475,
      "ĠH": 476,
      "Ġcl": 477,
      "ag": 478,
      "Ġcont": 479,
      "so": 480,
      "Ġ`": 481,
      "ĠB": 482,
      "ie": 483,
      "Ġinc": 484,
      "ip": 485,
      "Ġte": 486,
      "Ġdo": 487,
      "Ġpl": 488,
      "umb": 489,
      "our": 490,
      "The": 491,
      "Ġif": 492,
      "op": 493,
      "Ġstr": 494,
      "og": 495,
      "ard": 496,
      "Ġapp": 497,
      "du": 498,
      "Ġun": 499,
      "Ġalso": 500,
      "ast": 501,
      "Ġval": 502,
      "Ġwhich": 503,
      "Ġtr": 504,
      "ime": 505,
      "unction": 506,
      "ase": 507,
      "Ġ-": 508,
      "ĠM": 509,
      "Ġimp": 510,
      "ib": 511,
      "Ġdata": 512,
      "Ġco": 513,
      "rou": 514,
      "ike": 515,
      "Ġcomp": 516,
      "ign": 517,
      "ĠF": 518,
      "form": 519,
      "Ġfunction": 520,
      "ile": 521,
      "Ġ+": 522,
      "Ġwill": 523,
      "Ġj": 524,
      "Ġcre": 525,
      "cc": 526,
      "ress": 527,
      "gh": 528,
      "ces": 529,
      "urn": 530,
      "Ġnumb": 531,
      "ack": 532,
      "xt": 533,
      "ang": 534,
      "Ġall": 535,
      "Ġcons": 536,
      "Ġbut": 537,
      "Ġout": 538,
      "Ġev": 539,
      "ific": 540,
      "Ġhel": 541,
      "ĠE": 542,
      "Ġk": 543,
      "ep": 544,
      "rit": 545,
      "ents": 546,
      "Ġlike": 547,
      "ary": 548,
      "Ġhelp": 549,
      "ari": 550,
      "Ġbet": 551,
      "Ġabout": 552,
      "ition": 553,
      "Ġta": 554,
      "ans": 555,
      "hat": 556,
      "Ġsc": 557,
      "ative": 558,
      "vel": 559,
      "Ġmy": 560,
      "ire": 561,
      "Ġrel": 562,
      "Ġem": 563,
      "Ġsuch": 564,
      "Ġper": 565,
      "Ġthey": 566,
      "Ġret": 567,
      "ĠR": 568,
      "Ġqu": 569,
      "we": 570,
      "Ġother": 571,
      "ĊĠĠĠĠĠĠĠ": 572,
      "ks": 573,
      "ice": 574,
      "ual": 575,
      "Ġind": 576,
      "```": 577,
      "ating": 578,
      "ated": 579,
      "fere": 580,
      "Ġpo": 581,
      "av": 582,
      "ider": 583,
      "ous": 584,
      "Ġhas": 585,
      "Ġpre": 586,
      "Ġspe": 587,
      "Ġdis": 588,
      "ame": 589,
      "oo": 590,
      "ound": 591,
      "Ġro": 592,
      "one": 593,
      "ors": 594,
      "ĠD": 595,
      "Ġgo": 596,
      "ĠĠĠĠĠĠĠĠ": 597,
      "yth": 598,
      "Ġcould": 599,
      "Ġman": 600,
      "Ġwould": 601,
      "Ġprov": 602,
      "Ġwas": 603,
      "Ġsome": 604,
      "ential": 605,
      "Ġ$": 606,
      "Ġneed": 607,
      "Ġfo": 608,
      "nder": 609,
      "ong": 610,
      "ount": 611,
      "ise": 612,
      "Ġreturn": 613,
      "Ġmake": 614,
      "Ġover": 615,
      "ory": 616,
      "Ġsp": 617,
      "ility": 618,
      "Ġdif": 619,
      "Ġup": 620,
      "ject": 621,
      "Ġtime": 622,
      "ear": 623,
      "Ġthem": 624,
      "ace": 625,
      "ween": 626,
      "Ġvari": 627,
      "Ġbetween": 628,
      "Ġnew": 629,
      "Ġone": 630,
      "Ġuse": 631,
      "Ġcomm": 632,
      "ues": 633,
      "Ġinto": 634,
      "ail": 635,
      "ph": 636,
      "Ġmo": 637,
      "Ġunder": 638,
      "now": 639,
      "Ġour": 640,
      "Ġadd": 641,
      "Ġeff": 642,
      "Ġnumber": 643,
      "You": 644,
      "put": 645,
      "ities": 646,
      "ates": 647,
      "lud": 648,
      "Ġtw": 649,
      "ict": 650,
      "ĠL": 651,
      "ys": 652,
      "Ġpr": 653,
      "Ġke": 654,
      "'re": 655,
      "Ġits": 656,
      "rib": 657,
      "erv": 658,
      "Ġtra": 659,
      "ays": 660,
      "ĠO": 661,
      "Ġpos": 662,
      "Ġconc": 663,
      "lf": 664,
      "Ġthese": 665,
      "Ġspec": 666,
      "Ġeach": 667,
      "Ġexp": 668,
      "ython": 669,
      "ally": 670,
      "ample": 671,
      "ments": 672,
      "In": 673,
      "les": 674,
      "cess": 675,
      "Ġ**": 676,
      "ize": 677,
      "Ġso": 678,
      "ef": 679,
      "ens": 680,
      "Ġexper": 681,
      "ĠN": 682,
      "Ġdiffere": 683,
      "Ġwhere": 684,
      "Ġlist": 685,
      "erm": 686,
      "Ġchar": 687,
      "Ġmay": 688,
      "Ġany": 689,
      "Ġ'": 690,
      "Ġpart": 691,
      "ond": 692,
      "Ġdes": 693,
      "Ġass": 694,
      "hip": 695,
      "Ġhow": 696,
      "Ġfind": 697,
      "Ġtwo": 698,
      "Ġx": 699,
      "Ġconsider": 700,
      "ange": 701,
      "ful": 702,
      "Ġset": 703,
      "ings": 704,
      "Ġacc": 705,
      "Ġthere": 706,
      "yst": 707,
      "Ġusing": 708,
      "Ġwork": 709,
      "get": 710,
      "ĠIt": 711,
      "irst": 712,
      "vers": 713,
      "str": 714,
      "Ġwho": 715,
      "eg": 716,
      "ons": 717,
      "Ġshould": 718,
      "Ġwhat": 719,
      "Ġform": 720,
      "Ġwhen": 721,
      "ram": 722,
      "Ġsent": 723,
      "Ġpers": 724,
      "ap": 725,
      "Ġmod": 726,
      "Ġdec": 727,
      "Ġinclud": 728,
      "ĠG": 729,
      "Ġthan": 730,
      "Ġknow": 731,
      "eth": 732,
      "ient": 733,
      "âĢ": 734,
      "Ġget": 735,
      "Ġinv": 736,
      "ns": 737,
      "Ġresp": 738,
      "Ġmat": 739,
      "Ġ[": 740,
      "ify": 741,
      "Ġob": 742,
      "Ġprob": 743,
      "Ġrec": 744,
      "ystem": 745,
      "Ġappro": 746,
      "ience": 747,
      "Ġfl": 748,
      "'t": 749,
      "Ġpoint": 750,
      "Ġdist": 751,
      "ark": 752,
      "ck": 753,
      "ord": 754,
      "Ġwell": 755,
      "Ġph": 756,
      "ry": 757,
      "led": 758,
      "Ġdet": 759,
      "pport": 760,
      "Ġexpl": 761,
      "llow": 762,
      "Ġsign": 763,
      "aus": 764,
      "Ġcharact": 765,
      "stand": 766,
      "row": 767,
      "Ġher": 768,
      "ose": 769,
      "Ġstud": 770,
      "ne": 771,
      "ics": 772,
      "ite": 773,
      "oy": 774,
      "**:": 775,
      "Ġcreate": 776,
      "its": 777,
      "),": 778,
      "Ġvalue": 779,
      "ree": 780,
      "ĠIn": 781,
      "ĠU": 782,
      "'ve": 783,
      "Ġoff": 784,
      "ob": 785,
      "gg": 786,
      "ible": 787,
      "Ġanal": 788,
      "Ġcor": 789,
      "ak": 790,
      ").": 791,
      "To": 792,
      "rough": 793,
      "Ġequ": 794,
      "ert": 795,
      "ular": 796,
      "reat": 797,
      "Ġam": 798,
      "Ġinform": 799,
      "Ġra": 800,
      "Ġcal": 801,
      "):": 802,
      "Ġrem": 803,
      "Ġprodu": 804,
      "ĠJ": 805,
      "oth": 806,
      "ribut": 807,
      "Ġresult": 808,
      "Ġcomple": 809,
      "Ġmight": 810,
      "Ġinter": 811,
      "..": 812,
      "ten": 813,
      "ĠĊ": 814,
      "ever": 815,
      "Ġpe": 816,
      "Ġsim": 817,
      "ĠIf": 818,
      "Ġgen": 819,
      "ability": 820,
      "ub": 821,
      "ting": 822,
      "Ġreg": 823,
      "Ġeffect": 824,
      "Ġfollow": 825,
      ".\"": 826,
      "ild": 827,
      "als": 828,
      "Ġele": 829,
      "Ġunderstand": 830,
      "ning": 831,
      "ident": 832,
      "Ġused": 833,
      "Ġ{": 834,
      "Ġbeen": 835,
      "Ġrep": 836,
      "Ġfirst": 837,
      "Ġmean": 838,
      "Ġrelations": 839,
      "Ġsub": 840,
      "Ġsm": 841,
      "Ġstart": 842,
      "What": 843,
      "enc": 844,
      "Ġpat": 845,
      "very": 846,
      "ĠĠĠĠĠĠĠ": 847,
      "Ġrelationship": 848,
      "ased": 849,
      "Ġ*": 850,
      "te": 851,
      "cept": 852,
      "wn": 853,
      "ough": 854,
      "hes": 855,
      "Ġfact": 856,
      "Ġty": 857,
      "eng": 858,
      "Ġsol": 859,
      "--": 860,
      "Ġbec": 861,
      "ĠHow": 862,
      "velop": 863,
      "ode": 864,
      "How": 865,
      "Ġread": 866,
      "Ġkey": 867,
      "Ġthrough": 868,
      "ink": 869,
      "Ġwrit": 870,
      "ower": 871,
      "cul": 872,
      "Ġway": 873,
      "Ġprovide": 874,
      "ract": 875,
      "ures": 876,
      "Ġexample": 877,
      "Ġpot": 878,
      "Ġperson": 879,
      "uct": 880,
      "Ġatt": 881,
      "()": 882,
      "Ġcol": 883,
      "Ġwhile": 884,
      "ft": 885,
      "Ġtrans": 886,
      "Ġact": 887,
      "resent": 888,
      "Ġday": 889,
      "iqu": 890,
      "Ġess": 891,
      "Ġfeel": 892,
      "Ġdisc": 893,
      "ences": 894,
      "Ġtake": 895,
      "Ġvalues": 896,
      "ĠWe": 897,
      "ving": 898,
      "Ġthen": 899,
      "iven": 900,
      "Ġpotential": 901,
      "Ġdifferent": 902,
      "ople": 903,
      "Ġwant": 904,
      "self": 905,
      "Ġins": 906,
      "Ġrev": 907,
      "'ll": 908,
      "Ġide": 909,
      "Ġspecific": 910,
      "ional": 911,
      "Ġmain": 912,
      "Ġdoes": 913,
      "Ġincre": 914,
      "Ġjust": 915,
      "nce": 916,
      "Ġhigh": 917,
      "own": 918,
      "Ġhis": 919,
      "lic": 920,
      "uc": 921,
      "Ġtext": 922,
      "ense": 923,
      "ocus": 924,
      "Ġdevelop": 925,
      "Ġsentence": 926,
      "Ġprog": 927,
      "Ġback": 928,
      "Ġpar": 929,
      "Ġsec": 930,
      "Ġyear": 931,
      "ish": 932,
      "Ġsignific": 933,
      "itive": 934,
      "anc": 935,
      "hen": 936,
      "Ġgener": 937,
      "Ġlead": 938,
      "any": 939,
      "ily": 940,
      "Ġcle": 941,
      "Ġprocess": 942,
      "ivid": 943,
      "Ġbu": 944,
      "dition": 945,
      "Ġmed": 946,
      "Ġdef": 947,
      "Ġpeople": 948,
      "inal": 949,
      "Ġ/": 950,
      "Ġsee": 951,
      "ĊĠĠĠĠĠĠĠĠĠĠĠ": 952,
      "ases": 953,
      "Ġinteg": 954,
      "ethod": 955,
      "chn": 956,
      "Ġcur": 957,
      "'m": 958,
      "fore": 959,
      "pect": 960,
      "Ġloc": 961,
      "Ġmost": 962,
      "mat": 963,
      "Ġvis": 964,
      "Ġcharacter": 965,
      "Ġident": 966,
      "li": 967,
      "Ġeng": 968,
      "ook": 969,
      "Ġbl": 970,
      "Ġsum": 971,
      "Ġimpro": 972,
      "Ġgrou": 973,
      "Ġinput": 974,
      "Ġword": 975,
      "Ġfocus": 976,
      "ĠYou": 977,
      "Ġapproach": 978,
      "tern": 979,
      "Ġinformation": 980,
      "Ġarg": 981,
      "Ġinf": 982,
      "uring": 983,
      "Ġboth": 984,
      "iew": 985,
      "Ġcalcul": 986,
      "ality": 987,
      "ia": 988,
      "other": 989,
      "Ġeven": 990,
      "ices": 991,
      "Ġlo": 992,
      "imate": 993,
      "Ġcommun": 994,
      "ically": 995,
      "ĠWhat": 996,
      "Ġsystem": 997,
      "Ġonly": 998,
      "ather": 999,
      "ife": 1000,
      "Ġno": 1001,
      "Ġmethod": 1002,
      "olog": 1003,
      "ness": 1004,
      "pr": 1005,
      "Ġtechn": 1006,
      "ause": 1007,
      "Ġproduct": 1008,
      "Ġhand": 1009,
      "Ġprovid": 1010,
      "python": 1011,
      "arch": 1012,
      "raph": 1013,
      "Ġconf": 1014,
      "ves": 1015,
      "Ġplan": 1016,
      "Ġposs": 1017,
      "Ġrequ": 1018,
      "Ġallow": 1019,
      "ince": 1020,
      "lem": 1021,
      "Ġgu": 1022,
      "Ġche": 1023,
      "lect": 1024,
      "Ġref": 1025,
      "Ġmult": 1026,
      "Ġmaking": 1027,
      "ex": 1028,
      "ustom": 1029,
      "val": 1030,
      "Ġed": 1031,
      "ives": 1032,
      "nect": 1033,
      "Ġsignificant": 1034,
      "Ġimpact": 1035,
      "Ġcorre": 1036,
      "Ġquest": 1037,
      "ateg": 1038,
      "ater": 1039,
      "ggest": 1040,
      "This": 1041,
      "Ġent": 1042,
      "Ġdep": 1043,
      "ric": 1044,
      "Ġessential": 1045,
      "Ġens": 1046,
      "ument": 1047,
      "Ġcomplex": 1048,
      "Ġchang": 1049,
      "ward": 1050,
      "ian": 1051,
      "iness": 1052,
      "Ġshe": 1053,
      "Ġag": 1054,
      "old": 1055,
      "Ġsuggest": 1056,
      "Ġoften": 1057,
      "Ġsupport": 1058,
      "ps": 1059,
      "Ġbeing": 1060,
      "Ġnumbers": 1061,
      "ĠFor": 1062,
      "Ġac": 1063,
      "Ġ\\": 1064,
      "ts": 1065,
      "ious": 1066,
      "Ġ<": 1067,
      "Ġterm": 1068,
      "Ġtest": 1069,
      "Ġsa": 1070,
      "kes": 1071,
      "Ġgrow": 1072,
      "Ġfeet": 1073,
      "ĠPython": 1074,
      "Ġstring": 1075,
      "Ġproblem": 1076,
      "Ġlong": 1077,
      "Ġtop": 1078,
      "Ġinst": 1079,
      "Ġlet": 1080,
      "Ġsk": 1081,
      "Ġcustom": 1082,
      "Ġcare": 1083,
      "ade": 1084,
      "ysis": 1085,
      "Ġimport": 1086,
      "ext": 1087,
      "erest": 1088,
      "ights": 1089,
      "ploy": 1090,
      "Ġopt": 1091,
      "Ġsal": 1092,
      "erg": 1093,
      "Ġsense": 1094,
      "ng": 1095,
      "Here": 1096,
      "Ġmany": 1097,
      "Ġown": 1098,
      "Ġbus": 1099,
      "Ġsl": 1100,
      "Ġsur": 1101,
      "Ġclass": 1102,
      "Ġwere": 1103,
      "ved": 1104,
      "))": 1105,
      "Ġstand": 1106,
      "ision": 1107,
      "Ġ#": 1108,
      "Ġcase": 1109,
      "Ġsn": 1110,
      "line": 1111,
      "ty": 1112,
      "Ġhad": 1113,
      "read": 1114,
      "alth": 1115,
      "Ġmin": 1116,
      "Ġstate": 1117,
      "Ġsmall": 1118,
      "ĠHowever": 1119,
      "Ġline": 1120,
      "Ġcost": 1121,
      "Ġmark": 1122,
      "Ġart": 1123,
      "err": 1124,
      "Ġcompany": 1125,
      "emb": 1126,
      "ctions": 1127,
      "com": 1128,
      "Ġlear": 1129,
      "Ġsame": 1130,
      "Ġanalysis": 1131,
      "ĠBy": 1132,
      "iss": 1133,
      "Ġchall": 1134,
      "wor": 1135,
      "ied": 1136,
      "Ġpartic": 1137,
      "Ġreal": 1138,
      "Ġexperience": 1139,
      "Ġcount": 1140,
      "def": 1141,
      "Ġproject": 1142,
      "Ġstat": 1143,
      "Ġconnect": 1144,
      "Ġgiven": 1145,
      "Ġgreat": 1146,
      "verage": 1147,
      "ining": 1148,
      "ables": 1149,
      "Ġext": 1150,
      "Ġinterest": 1151,
      "con": 1152,
      "Ġeffective": 1153,
      "Ġimprove": 1154,
      "Ġcr": 1155,
      "Ġincluding": 1156,
      "Ġdire": 1157,
      "Ġpass": 1158,
      "ĠV": 1159,
      "Ġlar": 1160,
      "riend": 1161,
      "Ġsoc": 1162,
      "hed": 1163,
      "Ġworld": 1164,
      "\",": 1165,
      "ique": 1166,
      "rent": 1167,
      "ield": 1168,
      "ĠSt": 1169,
      "red": 1170,
      "Ġfollowing": 1171,
      "Ġclear": 1172,
      "Ġprof": 1173,
      "ression": 1174,
      "Ġinvol": 1175,
      "ature": 1176,
      "port": 1177,
      "angu": 1178,
      "tal": 1179,
      "Ġshow": 1180,
      "Ġ|": 1181,
      "ized": 1182,
      "Ġperform": 1183,
      "fter": 1184,
      "Ġteam": 1185,
      "Ġav": 1186,
      "ood": 1187,
      "ution": 1188,
      "ines": 1189,
      "tain": 1190,
      "Ġthink": 1191,
      "Ġadv": 1192,
      "ĊĠĠĠĠĠĠĠĠĠĠĠĠ": 1193,
      "ss": 1194,
      "Ġdistribut": 1195,
      "der": 1196,
      "Ġser": 1197,
      "iron": 1198,
      "Ġidentify": 1199,
      "ural": 1200,
      "Ġobject": 1201,
      "ick": 1202,
      "Ġpri": 1203,
      "Ġredu": 1204,
      "gan": 1205,
      "Ġdev": 1206,
      "ner": 1207,
      "Ġemploy": 1208,
      "Ġlife": 1209,
      "ered": 1210,
      "Ġbusiness": 1211,
      "Ġrese": 1212,
      "Ġlog": 1213,
      "Ġcode": 1214,
      "Ġop": 1215,
      "Ġlangu": 1216,
      "Ġtry": 1217,
      "ĠY": 1218,
      "Ġself": 1219,
      "Ġstep": 1220,
      "Ġpoints": 1221,
      "Ġunderstanding": 1222,
      "ency": 1223,
      "Ġtyp": 1224,
      "Ġenv": 1225,
      "Ġdown": 1226,
      "Ġjob": 1227,
      ");": 1228,
      "ization": 1229,
      "onse": 1230,
      "Ġprogram": 1231,
      "Ġstory": 1232,
      "Ġcontain": 1233,
      "Ġmodel": 1234,
      "bs": 1235,
      "Ġdesc": 1236,
      "(\"": 1237,
      "Ġstruct": 1238,
      "ĠâĢ": 1239,
      "icient": 1240,
      "Ġtotal": 1241,
      "ray": 1242,
      "oid": 1243,
      "ell": 1244,
      "Ġrange": 1245,
      "Ġtri": 1246,
      "Ġmust": 1247,
      "ript": 1248,
      "Ġel": 1249,
      "imes": 1250,
      "air": 1251,
      "Ġmulti": 1252,
      "ma": 1253,
      "Ġiss": 1254,
      "Ġwriting": 1255,
      "Ġest": 1256,
      "Ġsnail": 1257,
      "plement": 1258,
      "Ġwithout": 1259,
      "ational": 1260,
      "Ġconcise": 1261,
      "Ġorig": 1262,
      "Ġdeterm": 1263,
      ",\"": 1264,
      "ĠK": 1265,
      "It": 1266,
      "ividual": 1267,
      "ĠHere": 1268,
      "ead": 1269,
      "ets": 1270,
      "Ġpop": 1271,
      "ix": 1272,
      "Ġbeh": 1273,
      "Ġenviron": 1274,
      "Ġthough": 1275,
      "Ġensure": 1276,
      "Ġhealth": 1277,
      "Ġfew": 1278,
      "aging": 1279,
      "ec": 1280,
      "Ġindividual": 1281,
      "sc": 1282,
      "Ġresponse": 1283,
      "ering": 1284,
      "Ġyears": 1285,
      "Ġlanguage": 1286,
      "Ġstandard": 1287,
      "par": 1288,
      "Ġindic": 1289,
      "Ġben": 1290,
      "ared": 1291,
      "Ġmon": 1292,
      "Ġâ": 1293,
      "Ġbecause": 1294,
      "ator": 1295,
      "ost": 1296,
      "Ġargument": 1297,
      "Ġevery": 1298,
      "ours": 1299,
      "apt": 1300,
      "lus": 1301,
      "Ġfam": 1302,
      "Ġpur": 1303,
      "uss": 1304,
      "Ġserv": 1305,
      "dict": 1306,
      "Ġerr": 1307,
      "',": 1308,
      "ars": 1309,
      "Ġchanges": 1310,
      "ee": 1311,
      "Ġend": 1312,
      "Ġpossible": 1313,
      "Ġstill": 1314,
      "Ġaverage": 1315,
      "ĠCh": 1316,
      "Ġfriend": 1317,
      "ined": 1318,
      "Ġmade": 1319,
      "Ġnon": 1320,
      "urther": 1321,
      "oice": 1322,
      "ited": 1323,
      "Ġwithin": 1324,
      "Ġcomb": 1325,
      "Ġaround": 1326,
      "Ġlevel": 1327,
      "Ġfin": 1328,
      "rite": 1329,
      "Ġbre": 1330,
      "plic": 1331,
      "Ġstre": 1332,
      "Ġ}": 1333,
      "Ġemot": 1334,
      "ring": 1335,
      "Ġcontin": 1336,
      "Ġscore": 1337,
      "Ġchalleng": 1338,
      "Ġbuild": 1339,
      "Ġgood": 1340,
      "Ġtre": 1341,
      "ertain": 1342,
      "Ġaut": 1343,
      "ills": 1344,
      "Ġpower": 1345,
      "Ġremain": 1346,
      "ove": 1347,
      "Ġz": 1348,
      "Ġinclude": 1349,
      "Ġrepresent": 1350,
      "iation": 1351,
      "ĊĊĠĠĠ": 1352,
      "Ġcurrent": 1353,
      "ling": 1354,
      "Ġi": 1355,
      "ins": 1356,
      "Ġenvironment": 1357,
      "Ġtas": 1358,
      "Ġchange": 1359,
      "Ġdays": 1360,
      "ason": 1361,
      "ake": 1362,
      "Ġphr": 1363,
      "Ġdi": 1364,
      "Ġhum": 1365,
      "sw": 1366,
      "ieve": 1367,
      "Ġsocial": 1368,
      "Ġstudents": 1369,
      "ention": 1370,
      "Ġpositive": 1371,
      "Ġvariables": 1372,
      "ath": 1373,
      "ym": 1374,
      "Ġrole": 1375,
      "Ġexam": 1376,
      "print": 1377,
      "Ġimplement": 1378,
      "ĠAs": 1379,
      "An": 1380,
      "eting": 1381,
      "idence": 1382,
      "ples": 1383,
      "to": 1384,
      "Ġdesign": 1385,
      "ages": 1386,
      "Ġopen": 1387,
      "Ġfactors": 1388,
      "Ġwords": 1389,
      "âĢĻ": 1390,
      "Ġsecond": 1391,
      "Ġbefore": 1392,
      "Ġdon": 1393,
      "Ġsom": 1394,
      "Ġvers": 1395,
      "Ġbetter": 1396,
      "Ġsit": 1397,
      "Ġoriginal": 1398,
      "arr": 1399,
      "Ġfound": 1400,
      "Ġprint": 1401,
      "Ġnum": 1402,
      "Ġright": 1403,
      "Ġunique": 1404,
      "Ġfu": 1405,
      "Ġbenef": 1406,
      "Ġstatist": 1407,
      "Ġpol": 1408,
      "Ġafter": 1409,
      "ccess": 1410,
      "arm": 1411,
      "Ġcommon": 1412,
      "Ġbel": 1413,
      "Ġstrateg": 1414,
      "omm": 1415,
      "pportun": 1416,
      "Ġprobability": 1417,
      "Ġresearch": 1418,
      "Ġclim": 1419,
      "Ġgrowth": 1420,
      "Ġproper": 1421,
      "ĊĠ": 1422,
      "ern": 1423,
      "Ġhist": 1424,
      "Ġ==": 1425,
      "here": 1426,
      "aw": 1427,
      "Ġdem": 1428,
      "Ġexpect": 1429,
      "ised": 1430,
      "Ġoper": 1431,
      "ddition": 1432,
      "St": 1433,
      "Ġdiscuss": 1434,
      "Ġansw": 1435,
      "Ġdistribution": 1436,
      "Ġtype": 1437,
      "ength": 1438,
      "Ġmeas": 1439,
      "Ġplay": 1440,
      "'d": 1441,
      "Ġopportun": 1442,
      "ier": 1443,
      "Ġdirect": 1444,
      "...": 1445,
      "ems": 1446,
      "imately": 1447,
      "ergy": 1448,
      "Ġthose": 1449,
      "Ġrequire": 1450,
      "ven": 1451,
      "Ġorgan": 1452,
      "ology": 1453,
      "ulation": 1454,
      "ock": 1455,
      "ĠThey": 1456,
      "gether": 1457,
      "Ġtogether": 1458,
      "Ġdra": 1459,
      "Ġlim": 1460,
      "io": 1461,
      "Ġless": 1462,
      "Ġpersonal": 1463,
      "Ġelements": 1464,
      "dditionally": 1465,
      "Ġbest": 1466,
      "lying": 1467,
      "Ġcent": 1468,
      "onsider": 1469,
      "Ġideas": 1470,
      "ination": 1471,
      "Ġlocal": 1472,
      "ilities": 1473,
      "Ġpresent": 1474,
      "Ġarea": 1475,
      "----": 1476,
      "lling": 1477,
      "Ġgra": 1478,
      "Ġareas": 1479,
      "Ġstructure": 1480,
      "Ġworking": 1481,
      "iction": 1482,
      "Ġsqu": 1483,
      "Ġgroup": 1484,
      "ooking": 1485,
      "ually": 1486,
      "Ġexperi": 1487,
      "ories": 1488,
      "Ġskills": 1489,
      "Ġkeep": 1490,
      "list": 1491,
      "itions": 1492,
      "ĠThese": 1493,
      "Ġreach": 1494,
      "lu": 1495,
      "Ġach": 1496,
      "Ġduring": 1497,
      "Ġspace": 1498,
      "ots": 1499,
      "ivity": 1500,
      "Ġanaly": 1501,
      "Ġvariable": 1502,
      "ox": 1503,
      "Ġmaintain": 1504,
      "Ġexplore": 1505,
      "lation": 1506,
      "ross": 1507,
      "ources": 1508,
      "day": 1509,
      "Ġprom": 1510,
      "arity": 1511,
      "Ġmeans": 1512,
      "ism": 1513,
      "Ġterms": 1514,
      "Ġdiv": 1515,
      "izing": 1516,
      "ember": 1517,
      "arget": 1518,
      "Ġsuccess": 1519,
      "ants": 1520,
      "ways": 1521,
      "ety": 1522,
      "Ġprior": 1523,
      "back": 1524,
      "Ġfield": 1525,
      "Ġgl": 1526,
      "iting": 1527,
      "Ġnecess": 1528,
      "pre": 1529,
      "rodu": 1530,
      "Ġidea": 1531,
      "ced": 1532,
      "Ġparticular": 1533,
      "Ġmanage": 1534,
      "Ġconcept": 1535,
      "Ġaw": 1536,
      "ffect": 1537,
      "Ġcontext": 1538,
      "Ġmind": 1539,
      "Ġenergy": 1540,
      "Ġsay": 1541,
      "ru": 1542,
      "the": 1543,
      "Ġwater": 1544,
      "Ġsever": 1545,
      "Ġbased": 1546,
      "ote": 1547,
      "ior": 1548,
      "ata": 1549,
      "verse": 1550,
      "ope": 1551,
      "Ġprev": 1552,
      "Ġmet": 1553,
      "Ġinvest": 1554,
      "Ġocc": 1555,
      "Ġthree": 1556,
      "Ġpres": 1557,
      "Ġoverall": 1558,
      "Ġinit": 1559,
      "Ġaddition": 1560,
      "Ġreturns": 1561,
      "Ġris": 1562,
      "ublic": 1563,
      "Ġlight": 1564,
      "Ġtakes": 1565,
      "Ġassum": 1566,
      "Ġleast": 1567,
      "app": 1568,
      "Ġneeds": 1569,
      "Ġenc": 1570,
      "Ġball": 1571,
      "lish": 1572,
      "Ġrelationships": 1573,
      "ental": 1574,
      "ted": 1575,
      "ax": 1576,
      "Ġcar": 1577,
      "As": 1578,
      "ci": 1579,
      "ĠâĢĵ": 1580,
      "Ġcontent": 1581,
      "Ġpract": 1582,
      "Ġaddress": 1583,
      "Ġequation": 1584,
      "nces": 1585,
      "ists": 1586,
      "up": 1587,
      "Ġshare": 1588,
      "For": 1589,
      "ute": 1590,
      "Ġimportant": 1591,
      "Ġhours": 1592,
      "vey": 1593,
      "Ġeas": 1594,
      "Ġresults": 1595,
      "ternative": 1596,
      "Ġbra": 1597,
      "_{": 1598,
      "oring": 1599,
      "Ġdatas": 1600,
      "ron": 1601,
      "Ġdifference": 1602,
      "Ġbal": 1603,
      "Ġsometh": 1604,
      "Ġaccess": 1605,
      "Ġtoo": 1606,
      "Ġsentences": 1607,
      "Ġrather": 1608,
      "por": 1609,
      "Ġname": 1610,
      "Ġstrong": 1611,
      "Ġcult": 1612,
      "tle": 1613,
      "Ġprofess": 1614,
      "ĠTo": 1615,
      "ending": 1616,
      "Ġlook": 1617,
      "Ġstudy": 1618,
      "Ġlast": 1619,
      "Ġcharacters": 1620,
      "Ġplace": 1621,
      "Ġobs": 1622,
      "Ġcalculate": 1623,
      "Ġseveral": 1624,
      "word": 1625,
      "Ġsales": 1626,
      "uation": 1627,
      "Ġoffer": 1628,
      "ave": 1629,
      "ibility": 1630,
      "When": 1631,
      "Ġmeaning": 1632,
      "Ġnow": 1633,
      "Ġtrue": 1634,
      "ucial": 1635,
      "abor": 1636,
      "Ġmultiple": 1637,
      "Ġquestions": 1638,
      "By": 1639,
      "Ġorder": 1640,
      "Ġgoals": 1641,
      "Ġcrucial": 1642,
      "Ġsomething": 1643,
      "Ġconvers": 1644,
      "irc": 1645,
      "work": 1646,
      "Ġexc": 1647,
      "ew": 1648,
      "Ġnext": 1649,
      "ral": 1650,
      "ov": 1651,
      "ĠAI": 1652,
      "Ġvarious": 1653,
      "Ġseries": 1654,
      "anced": 1655,
      "alse": 1656,
      "Ġve": 1657,
      "Ġmess": 1658,
      "Ġwhether": 1659,
      "Ġhim": 1660,
      "cing": 1661,
      "uch": 1662,
      "Ġhig": 1663,
      "hemat": 1664,
      "ool": 1665,
      "ĉĉ": 1666,
      "agraph": 1667,
      "Ġconst": 1668,
      "Ġcommunity": 1669,
      "Ġlarge": 1670,
      "ances": 1671,
      "asing": 1672,
      "Ġversion": 1673,
      "rol": 1674,
      "Ġcrit": 1675,
      "Ġfurther": 1676,
      "lex": 1677,
      "Ġear": 1678,
      "If": 1679,
      "Ġuser": 1680,
      "Ġaud": 1681,
      "ithm": 1682,
      "ified": 1683,
      "__": 1684,
      "ital": 1685,
      "Ġtem": 1686,
      "Ġdecision": 1687,
      "Ġquestion": 1688,
      "Ġtarget": 1689,
      "over": 1690,
      "omet": 1691,
      "Ġalways": 1692,
      "Ġanswer": 1693,
      "name": 1694,
      "Ġrest": 1695,
      "ery": 1696,
      "Ġevent": 1697,
      "for": 1698,
      "Ġvisual": 1699,
      "Ġinflu": 1700,
      "Ġhere": 1701,
      "ek": 1702,
      "ren": 1703,
      "Ġmax": 1704,
      "terns": 1705,
      "pec": 1706,
      "Ġcommunic": 1707,
      "Ġask": 1708,
      "Ġhapp": 1709,
      "urs": 1710,
      "Ġparagraph": 1711,
      "Ġinsights": 1712,
      "pos": 1713,
      "round": 1714,
      "Ġgeneral": 1715,
      "Ġflow": 1716,
      "Ġpatterns": 1717,
      "Ġdevelopment": 1718,
      "Ġfil": 1719,
      "ides": 1720,
      "Ġdetermine": 1721,
      "We": 1722,
      "atural": 1723,
      "less": 1724,
      "lease": 1725,
      "Ġcreating": 1726,
      "Ġsing": 1727,
      "Ġstatement": 1728,
      "ially": 1729,
      "vert": 1730,
      "Ġcall": 1731,
      "Ġneg": 1732,
      "be": 1733,
      "ĠThere": 1734,
      "Ġsize": 1735,
      "Ġcity": 1736,
      "Ġinterv": 1737,
      "Ġanalyz": 1738,
      "Ġbehav": 1739,
      "yn": 1740,
      "gin": 1741,
      "atures": 1742,
      "Ġmathemat": 1743,
      "Ġsure": 1744,
      "atch": 1745,
      "Ġhuman": 1746,
      "Ġfall": 1747,
      "Ġprot": 1748,
      "Ġengaging": 1749,
      "Ġincrease": 1750,
      "Ġtimes": 1751,
      "light": 1752,
      "Ġcorrect": 1753,
      "Ġsample": 1754,
      "Ġcoll": 1755,
      "\")": 1756,
      "ients": 1757,
      "Another": 1758,
      "Ġphys": 1759,
      "Ġes": 1760,
      "Ġnet": 1761,
      "Ġperformance": 1762,
      "hile": 1763,
      "ale": 1764,
      "ĠHe": 1765,
      "Ġbi": 1766,
      "Ġcheck": 1767,
      "mer": 1768,
      "eff": 1769,
      "Ġgive": 1770,
      "Ġlearning": 1771,
      "Ġchallenges": 1772,
      "dd": 1773,
      "Ġmus": 1774,
      "Ġhy": 1775,
      "Ġbreak": 1776,
      "ape": 1777,
      "Ġsw": 1778,
      "Ġways": 1779,
      "Ġclarity": 1780,
      "set": 1781,
      "Ġavoid": 1782,
      "Ġtone": 1783,
      "Ġtool": 1784,
      "ees": 1785,
      "Ġexpress": 1786,
      "Ġdiction": 1787,
      "oss": 1788,
      "Ġtaking": 1789,
      "num": 1790,
      "Ġmot": 1791,
      "Ġevents": 1792,
      "Ġsince": 1793,
      "Ġlength": 1794,
      ".,": 1795,
      "Ġlooking": 1796,
      "Ġfamily": 1797,
      "aries": 1798,
      "Ġdetail": 1799,
      "Ġgot": 1800,
      "Ġconclus": 1801,
      "Ġeval": 1802,
      "`.": 1803,
      "idd": 1804,
      "Ġmuch": 1805,
      "Ġnu": 1806,
      "Ġvery": 1807,
      "value": 1808,
      "Ġelement": 1809,
      "acy": 1810,
      "Ġ.": 1811,
      "Ġmem": 1812,
      "Ġmonth": 1813,
      "Ġothers": 1814,
      "Ġeffectively": 1815,
      "Ġagain": 1816,
      "Ġscen": 1817,
      "Ġsimple": 1818,
      "Ġrun": 1819,
      "istic": 1820,
      "Ġelse": 1821,
      "Ġcolle": 1822,
      "Ġanother": 1823,
      "ogn": 1824,
      "endent": 1825,
      "Ġlearn": 1826,
      "ouse": 1827,
      "Ġshort": 1828,
      "Ġcontribut": 1829,
      "Ġcorrelation": 1830,
      "ledge": 1831,
      "Ġcareer": 1832,
      "Ġlikely": 1833,
      "yle": 1834,
      "ule": 1835,
      "Ġrevised": 1836,
      "Ġnorm": 1837,
      "Ġdataset": 1838,
      "Ġfac": 1839,
      "Ġmag": 1840,
      "Ġimm": 1841,
      "Ġrespons": 1842,
      "aut": 1843,
      "Ġge": 1844,
      "Ġprovides": 1845,
      "Ġarray": 1846,
      "iving": 1847,
      "Ġnatural": 1848,
      "ger": 1849,
      "Ġhome": 1850,
      "Ġdescrib": 1851,
      "Ġworks": 1852,
      "me": 1853,
      "aring": 1854,
      "Ġpopulation": 1855,
      "Ġfre": 1856,
      "erial": 1857,
      "Ġfeed": 1858,
      "Ġcaus": 1859,
      "Ġcirc": 1860,
      "Ġissues": 1861,
      "ĠTh": 1862,
      "Ġindust": 1863,
      "Ġmethods": 1864,
      "Ġfood": 1865,
      "just": 1866,
      "Ġdig": 1867,
      "Ġbenefits": 1868,
      "inking": 1869,
      "pro": 1870,
      "Ġstay": 1871,
      "Ġformul": 1872,
      "ips": 1873,
      "string": 1874,
      "Ġside": 1875,
      "Ġpast": 1876,
      "cent": 1877,
      "Ġnight": 1878,
      "Ġknown": 1879,
      "of": 1880,
      "`,": 1881,
      "ĊĠĠĠĠĠĠĠĠĠĠĠĠĠĠĠ": 1882,
      "Ġaffect": 1883,
      "Ġerror": 1884,
      "Ġcustomers": 1885,
      "Ġdue": 1886,
      "ash": 1887,
      "action": 1888,
      "Ġaccur": 1889,
      "Ġestab": 1890,
      "ĠEx": 1891,
      "lev": 1892,
      "Ġdeep": 1893,
      "aps": 1894,
      "Ġstore": 1895,
      "ises": 1896,
      "Ġold": 1897,
      "isf": 1898,
      "Ġpublic": 1899,
      "Ġcustomer": 1900,
      "ilar": 1901,
      "],": 1902,
      "ames": 1903,
      "quence": 1904,
      "Ġmove": 1905,
      "let": 1906,
      "Ġsound": 1907,
      "Ġreason": 1908,
      "oh": 1909,
      "Ġfile": 1910,
      "Ġeduc": 1911,
      "Write": 1912,
      "Ġobserv": 1913,
      "Ġamount": 1914,
      "Ġaspect": 1915,
      "aking": 1916,
      "els": 1917,
      "Ġhead": 1918,
      "Ġvalid": 1919,
      "ird": 1920,
      "Ġfund": 1921,
      "Ġleft": 1922,
      "Ġmiss": 1923,
      "atisf": 1924,
      "Ġsolution": 1925,
      "Ġconvey": 1926,
      "ror": 1927,
      "Ġincor": 1928,
      "However": 1929,
      "Ġcertain": 1930,
      "Ġsteps": 1931,
      "Ġexperiences": 1932,
      "=\"": 1933,
      "struct": 1934,
      "Ġtravel": 1935,
      "ĠYour": 1936,
      "come": 1937,
      "Ġtrend": 1938,
      "system": 1939,
      "ired": 1940,
      "Ġturn": 1941,
      "Ġdri": 1942,
      "Ġreview": 1943,
      "amp": 1944,
      "Ġprogress": 1945,
      "Ġspecial": 1946,
      "Ġcour": 1947,
      "astly": 1948,
      "ires": 1949,
      "Ġinteger": 1950,
      "Ġnecessary": 1951,
      "Ġbit": 1952,
      "de": 1953,
      "Ġsym": 1954,
      "numb": 1955,
      "Ġopportunities": 1956,
      "ugg": 1957,
      "Ġphrase": 1958,
      "Ġacross": 1959,
      "Ġaccount": 1960,
      "Ġyourself": 1961,
      "Ġnarr": 1962,
      "Ġexist": 1963,
      "Ġland": 1964,
      "Ġmessage": 1965,
      "Ġcontrol": 1966,
      "Ġsystems": 1967,
      "Ġapplic": 1968,
      "Ġey": 1969,
      "Ex": 1970,
      "Ġsaid": 1971,
      "oint": 1972,
      "Ġequal": 1973,
      "isions": 1974,
      "Ġlove": 1975,
      "Ġaudience": 1976,
      "Ġactiv": 1977,
      "Ġdid": 1978,
      "Ġmedia": 1979,
      "Ġenh": 1980,
      "Ġappear": 1981,
      "cl": 1982,
      "cise": 1983,
      "Ġbalance": 1984,
      "\":": 1985,
      "Ġsingle": 1986,
      "Ġhelps": 1987,
      "Ġachieve": 1988,
      "inary": 1989,
      "Ġdiff": 1990,
      "Ġage": 1991,
      "ĠAl": 1992,
      "Ġdictionary": 1993,
      "inally": 1994,
      "Ġdeviation": 1995,
      "imum": 1996,
      "Ġgain": 1997,
      "Ġprofessional": 1998,
      "ndom": 1999,
      "ody": 2000,
      "uments": 2001,
      "aches": 2002,
      "Ġhigher": 2003,
      "Ġchild": 2004,
      "ĠEm": 2005,
      "Ġrate": 2006,
      "Ġbehavior": 2007,
      "Ġdr": 2008,
      "atic": 2009,
      "Ġevalu": 2010,
      "Ġable": 2011,
      "amet": 2012,
      "Ġcosts": 2013,
      "Lastly": 2014,
      "resp": 2015,
      "Now": 2016,
      "oura": 2017,
      "Ġfeedback": 2018,
      "Ġsquare": 2019,
      "ĠAn": 2020,
      "ble": 2021,
      "Ġonline": 2022,
      "Ġreader": 2023,
      "ĠCon": 2024,
      "Ġlower": 2025,
      "Ġmeasure": 2026,
      "Ġcond": 2027,
      "Ġoptions": 2028,
      "Ġmom": 2029,
      "Ġgroups": 2030,
      "Ġscores": 2031,
      "Ġmaterial": 2032,
      "ection": 2033,
      "Ġiter": 2034,
      "Ġlow": 2035,
      "ards": 2036,
      "Ġarr": 2037,
      "Ġconsist": 2038,
      "Ġcoeff": 2039,
      "Ġclimb": 2040,
      "ĠBut": 2041,
      "Ġevidence": 2042,
      "Ġbul": 2043,
      "Ġadjust": 2044,
      "ately": 2045,
      "Ġbecome": 2046,
      "Ġuses": 2047,
      "Al": 2048,
      "Ġvoice": 2049,
      "Ġallows": 2050,
      "Ġformula": 2051,
      "by": 2052,
      "iques": 2053,
      "Ġcome": 2054,
      "ming": 2055,
      "Ġsaf": 2056,
      "Ġcollabor": 2057,
      "ank": 2058,
      "Ġmedian": 2059,
      "Ġemotional": 2060,
      "not": 2061,
      "au": 2062,
      "Ġbat": 2063,
      "Ġfut": 2064,
      "time": 2065,
      "angle": 2066,
      "ything": 2067,
      "Ġperspect": 2068,
      "ĠĠĠĠĠĠĠĠĠĠĠĠĠĠĠĠ": 2069,
      ")^": 2070,
      "nov": 2071,
      "Ġclose": 2072,
      "Ġinvolves": 2073,
      "Ġresources": 2074,
      "pping": 2075,
      "Ġindividuals": 2076,
      "ready": 2077,
      "oose": 2078,
      "Ġfactor": 2079,
      "Ġlit": 2080,
      "Ġfore": 2081,
      "chool": 2082,
      "ption": 2083,
      "ster": 2084,
      "ĠAnd": 2085,
      "iod": 2086,
      "Ġweek": 2087,
      "Ġbr": 2088,
      "ĠUse": 2089,
      "ently": 2090,
      "Ġfoot": 2091,
      "Ġsatisf": 2092,
      "Ġview": 2093,
      "Ġemployees": 2094,
      "pty": 2095,
      "rror": 2096,
      "Ġtypes": 2097,
      "Ġnegative": 2098,
      "Ġrespect": 2099,
      "ĠWhen": 2100,
      "Ġunc": 2101,
      "Ġver": 2102,
      "Ġavail": 2103,
      "Ġalready": 2104,
      "ties": 2105,
      "ource": 2106,
      "Ġmar": 2107,
      "Ġallowing": 2108,
      "imal": 2109,
      "Ġair": 2110,
      "Ġthinking": 2111,
      "Ġintrodu": 2112,
      "hens": 2113,
      "wards": 2114,
      "Ġquality": 2115,
      "utions": 2116,
      "Ġbegin": 2117,
      "ries": 2118,
      "osp": 2119,
      "ibr": 2120,
      "Ġtasks": 2121,
      "Ġtrying": 2122,
      "Ġpath": 2123,
      "Ġintegers": 2124,
      "aim": 2125,
      "aces": 2126,
      "Ġreduce": 2127,
      "liers": 2128,
      "Ġlinear": 2129,
      "Ġproviding": 2130,
      "Ġactivities": 2131,
      "Ġsens": 2132,
      "::": 2133,
      "Ġsituation": 2134,
      "ference": 2135,
      "Ġstatistical": 2136,
      "alk": 2137,
      "Ġ$\\": 2138,
      "Ġgr": 2139,
      "Ġthings": 2140,
      "Ġtechniques": 2141,
      "Ġfuture": 2142,
      "ava": 2143,
      "':": 2144,
      "reen": 2145,
      "hold": 2146,
      "lo": 2147,
      "Ġefficient": 2148,
      "Ġtend": 2149,
      "Ġstreng": 2150,
      "igate": 2151,
      "Ġnarrative": 2152,
      "Ġcateg": 2153,
      "There": 2154,
      "Your": 2155,
      "Ġmeet": 2156,
      "Ġder": 2157,
      "fect": 2158,
      "sing": 2159,
      "Ġsort": 2160,
      "mar": 2161,
      "ĠAre": 2162,
      "respond": 2163,
      "Ġaction": 2164,
      "Ġfree": 2165,
      "Ġpredict": 2166,
      "Ġperiod": 2167,
      "ished": 2168,
      "Ġadditional": 2169,
      "One": 2170,
      "Ġmarket": 2171,
      "Additionally": 2172,
      "Ġsimpl": 2173,
      "ah": 2174,
      "ĠRe": 2175,
      "Ġroom": 2176,
      "Ġseem": 2177,
      "Ġfinanc": 2178,
      "Ġinitial": 2179,
      "Ġcorrespond": 2180,
      "Ġcourse": 2181,
      "Ġbound": 2182,
      "Ġdraw": 2183,
      "fully": 2184,
      "Ġmakes": 2185,
      "Ġcontinu": 2186,
      "Ġissue": 2187,
      "Ġknowledge": 2188,
      "Ġbro": 2189,
      "Ġcap": 2190,
      "Ġcompre": 2191,
      "Ġtask": 2192,
      "rame": 2193,
      "Ġregular": 2194,
      "Ġengage": 2195,
      "sel": 2196,
      "Ġpie": 2197,
      "ush": 2198,
      "Ġconnection": 2199,
      "Ġtell": 2200,
      "{\\": 2201,
      "pose": 2202,
      "Th": 2203,
      "inct": 2204,
      "Ġfinal": 2205,
      "Ġgoal": 2206,
      "Let": 2207,
      "ended": 2208,
      "ration": 2209,
      "math": 2210,
      "Ġsomeone": 2211,
      "Ġformal": 2212,
      "gor": 2213,
      "Ġcontra": 2214,
      "rue": 2215,
      "Ġworth": 2216,
      "Ġinstead": 2217,
      "ĠPro": 2218,
      "Ġpriorit": 2219,
      "Ġitself": 2220,
      "Ġhistory": 2221,
      "play": 2222,
      "Ġ&": 2223,
      "ager": 2224,
      "Error": 2225,
      "Ġtransform": 2226,
      "Ġstarting": 2227,
      "conom": 2228,
      "sh": 2229,
      "Ġdivid": 2230,
      "Ġexpression": 2231,
      "arent": 2232,
      "Ġdecisions": 2233,
      "Ġsust": 2234,
      "Ġformat": 2235,
      "pot": 2236,
      "Ġdescript": 2237,
      "ĠUn": 2238,
      "Ġparticularly": 2239,
      "Ġalign": 2240,
      "Ġoccur": 2241,
      "atform": 2242,
      "Ġthought": 2243,
      "Ġcomprehens": 2244,
      "Ġindep": 2245,
      "Ġassistant": 2246,
      "Ġinterpre": 2247,
      "Ġhaving": 2248,
      "Ġseen": 2249,
      "aling": 2250,
      "Ġsustain": 2251,
      "ĠQ": 2252,
      "Ġthoughts": 2253,
      "gorithm": 2254,
      "Ġconsidering": 2255,
      "phas": 2256,
      "Ġcondition": 2257,
      "Ġbring": 2258,
      "Ġsequence": 2259,
      "ĠSince": 2260,
      "Ġrandom": 2261,
      "Ġproducts": 2262,
      "Ġcases": 2263,
      "Ġmotiv": 2264,
      "()`": 2265,
      "Ġâī": 2266,
      "Ġconcer": 2267,
      "add": 2268,
      "ĠX": 2269,
      "Ġstyle": 2270,
      "Ġconclusion": 2271,
      "Ġtypically": 2272,
      "Ġconditions": 2273,
      "Ġsetting": 2274,
      "Ġfinancial": 2275,
      "Ġexplain": 2276,
      "Ġdetails": 2277,
      "Ġconversation": 2278,
      "Ġpay": 2279,
      "Ġexcept": 2280,
      "Ġindustry": 2281,
      "Ġreally": 2282,
      "ĠâĪ": 2283,
      "Ġconse": 2284,
      "Ġdoesn": 2285,
      "Ġgeomet": 2286,
      "ken": 2287,
      "Ġnature": 2288,
      "Ġgoing": 2289,
      "Ġ>": 2290,
      "Ġcra": 2291,
      "Ġnav": 2292,
      "Ġsimilar": 2293,
      "Ġchec": 2294,
      "Ġmanagement": 2295,
      "pecially": 2296,
      "ann": 2297,
      "Ġrisk": 2298,
      "Ġmarketing": 2299,
      "ively": 2300,
      "ither": 2301,
      "Ġclaim": 2302,
      "Ġsuggests": 2303,
      "ynam": 2304,
      "Ġrelev": 2305,
      "Ġexpert": 2306,
      "Consider": 2307,
      "ero": 2308,
      "Ġprime": 2309,
      "Ġdoing": 2310,
      "oot": 2311,
      "Can": 2312,
      "ograph": 2313,
      "Ġestablish": 2314,
      "Ġlimit": 2315,
      "Ġjour": 2316,
      "Ġreaders": 2317,
      "Ġincorpor": 2318,
      "hor": 2319,
      "Ġespecially": 2320,
      "Ġbas": 2321,
      "uable": 2322,
      "Ġsepar": 2323,
      "Ġplatform": 2324,
      "Ġrepl": 2325,
      "Ġposition": 2326,
      "joy": 2327,
      "Ġsupp": 2328,
      "Ġstrugg": 2329,
      "Ġupd": 2330,
      "iled": 2331,
      "Ġcapt": 2332,
      "So": 2333,
      "ters": 2334,
      "Ġfeatures": 2335,
      "Ġelect": 2336,
      "icult": 2337,
      ":**": 2338,
      "orts": 2339,
      "ooks": 2340,
      "Ġstrategies": 2341,
      "}$": 2342,
      "etic": 2343,
      "Ġphysical": 2344,
      "Ġsubject": 2345,
      "('": 2346,
      "Ġcritical": 2347,
      "Ġalgorithm": 2348,
      "Ġconcerns": 2349,
      "Ġrecomm": 2350,
      "Ġinstance": 2351,
      "Ġpolic": 2352,
      "Ġcomplete": 2353,
      "Ġinnov": 2354,
      "Ġfunctions": 2355,
      "Ġprep": 2356,
      "ĠShe": 2357,
      "Ġloop": 2358,
      "lt": 2359,
      "Ġsolve": 2360,
      "Ġtemper": 2361,
      "Ġalternative": 2362,
      "Ġprevious": 2363,
      "Ġimportance": 2364,
      "Ġforward": 2365,
      "Ġentire": 2366,
      "Ġlogical": 2367,
      "Ġrece": 2368,
      "ĠIs": 2369,
      "land": 2370,
      "Ġoutput": 2371,
      "writ": 2372,
      "Ġplot": 2373,
      "yc": 2374,
      "Ġever": 2375,
      "Ġattention": 2376,
      "import": 2377,
      "Ġhold": 2378,
      "urity": 2379,
      "Ġkind": 2380,
      "fra": 2381,
      "Ġenhance": 2382,
      "ney": 2383,
      "Ġmemb": 2384,
      "Ġassoc": 2385,
      "Ġexact": 2386,
      "ptions": 2387,
      "Ġpair": 2388,
      "Ġrecogn": 2389,
      "omes": 2390,
      "pped": 2391,
      "Ġfrequ": 2392,
      "Ġencoura": 2393,
      "unch": 2394,
      "Ġschool": 2395,
      "Ġdifficult": 2396,
      "Ġgram": 2397,
      "Ġrad": 2398,
      "Ġfit": 2399,
      "Ġpost": 2400,
      "ilt": 2401,
      "Ġreve": 2402,
      "Ġvol": 2403,
      "Ġfriends": 2404,
      "Ġpain": 2405,
      "Ġrelative": 2406,
      "Ġcommunication": 2407,
      "face": 2408,
      "Ġvisit": 2409,
      "Ġabs": 2410,
      "Ġproperties": 2411,
      "Ġcomput": 2412,
      "Ġderiv": 2413,
      "Ġchoice": 2414,
      "lude": 2415,
      "Ġsolutions": 2416,
      "fort": 2417,
      "Ġpress": 2418,
      "Ġreflect": 2419,
      "ĠConsider": 2420,
      "Ġleading": 2421,
      "onstr": 2422,
      "Ġ//": 2423,
      "Ġoutliers": 2424,
      "rix": 2425,
      "az": 2426,
      "path": 2427,
      "ivers": 2428,
      "itch": 2429,
      "avor": 2430,
      "ply": 2431,
      "Ġpoly": 2432,
      "Ġemployee": 2433,
      "ĠCan": 2434,
      "Ġstrength": 2435,
      "Ġenjoy": 2436,
      "ĠSh": 2437,
      "min": 2438,
      "].": 2439,
      "Ġcollect": 2440,
      "Ġavailable": 2441,
      "Ġapprox": 2442,
      "numbers": 2443,
      "Ġtechnology": 2444,
      "Ġactions": 2445,
      "Ġdeg": 2446,
      "Ġbody": 2447,
      "ift": 2448,
      "Ġitems": 2449,
      "resents": 2450,
      "ohn": 2451,
      "Ġprovided": 2452,
      "Ġtraining": 2453,
      "Ġperfect": 2454,
      "Ġindependent": 2455,
      "key": 2456,
      "Ġhandle": 2457,
      "bra": 2458,
      "eed": 2459,
      "Ġroot": 2460,
      "ges": 2461,
      "Ġextre": 2462,
      "Ġda": 2463,
      "Ġregression": 2464,
      "Ġprim": 2465,
      "Ġservices": 2466,
      "Ġconstant": 2467,
      "Ġpercent": 2468,
      "ats": 2469,
      "Con": 2470,
      "gs": 2471,
      "asc": 2472,
      "Ġsearch": 2473,
      "Ġaway": 2474,
      "Ġdynam": 2475,
      "Ġprem": 2476,
      "Ġhope": 2477,
      "ĠOne": 2478,
      "Ġrepresents": 2479,
      "Ġtrack": 2480,
      "Ġeconom": 2481,
      "orical": 2482,
      "Ġclos": 2483,
      "Ġinvolve": 2484,
      "Ġwrite": 2485,
      "Ġmembers": 2486,
      "Ġusers": 2487,
      "Ġsuit": 2488,
      "fer": 2489,
      "right": 2490,
      "Ġnormal": 2491,
      "Ġbuilding": 2492,
      "imize": 2493,
      "ĠInst": 2494,
      "Ġinteract": 2495,
      "Ġadapt": 2496,
      "Ġerrors": 2497,
      "ging": 2498,
      "utes": 2499,
      "Ġgetting": 2500,
      "iety": 2501,
      "Ġanalyze": 2502,
      "?\"": 2503,
      "Ġpa": 2504,
      "ĠOut": 2505,
      "arc": 2506,
      "ĠAdditionally": 2507,
      "ising": 2508,
      "Ġimplementation": 2509,
      "Ġsimply": 2510,
      "aving": 2511,
      "Ġdemonstr": 2512,
      "Ġdistinct": 2513,
      "Ġlevels": 2514,
      "Ġrelevant": 2515,
      "Ġhypot": 2516,
      "Ġsmo": 2517,
      "arth": 2518,
      "Pro": 2519,
      "ators": 2520,
      "ane": 2521,
      "side": 2522,
      "Ġyoung": 2523,
      "Ġsumm": 2524,
      "Ġconver": 2525,
      "ĠAr": 2526,
      "rate": 2527,
      "Ġsets": 2528,
      "Ġguid": 2529,
      "Ġchoose": 2530,
      "ension": 2531,
      "Ġla": 2532,
      "^(": 2533,
      "Ġguide": 2534,
      "Ġrelated": 2535,
      "Ġske": 2536,
      "Ġabove": 2537,
      "Ġsun": 2538,
      "Ġcomplexity": 2539,
      "ĊĊ": 2540,
      "Ġmusic": 2541,
      "ĠBe": 2542,
      "omial": 2543,
      "iles": 2544,
      "son": 2545,
      "Ġvaluable": 2546,
      "Ġneeded": 2547,
      "ĠWhile": 2548,
      "Ġtrends": 2549,
      "Ġhard": 2550,
      "Ġemotions": 2551,
      "Ġang": 2552,
      "Ġparamet": 2553,
      "Ġgreater": 2554,
      "Ġdoc": 2555,
      "Ġnear": 2556,
      "Ġthird": 2557,
      "Ġheart": 2558,
      "Ġhouse": 2559,
      "ĠLet": 2560,
      "Ġcommit": 2561,
      "Ġempty": 2562,
      "Ġwind": 2563,
      "Ġwhy": 2564,
      "izes": 2565,
      "Ġtools": 2566,
      "Ġill": 2567,
      "ĠDo": 2568,
      "Ġarguments": 2569,
      "itud": 2570,
      "Ġplanning": 2571,
      "comes": 2572,
      "Ġden": 2573,
      "til": 2574,
      "Ġbeaut": 2575,
      "Ġdistance": 2576,
      "quences": 2577,
      "hesis": 2578,
      "ume": 2579,
      "Ġcoefficient": 2580,
      "Ġbook": 2581,
      "Ġmaj": 2582,
      "ches": 2583,
      "Ġsides": 2584,
      "Ġstra": 2585,
      "case": 2586,
      "Ġbehind": 2587,
      "Ġsoft": 2588,
      "hel": 2589,
      "Ġextreme": 2590,
      "Im": 2591,
      "Ġstress": 2592,
      "Ġtreat": 2593,
      "ĠMy": 2594,
      "ele": 2595,
      "Ġexpected": 2596,
      "Ġemphas": 2597,
      "Ġbase": 2598,
      "Ġmoment": 2599,
      "Ġnumer": 2600,
      "edi": 2601,
      "aced": 2602,
      "Ġfar": 2603,
      "term": 2604,
      "new": 2605,
      "reate": 2606,
      "data": 2607,
      "Ġmaterials": 2608,
      "Ġunderlying": 2609,
      "Ġaim": 2610,
      "Ġsignificantly": 2611,
      "ends": 2612,
      "Ġtheory": 2613,
      "Ġoutcomes": 2614,
      "ctor": 2615,
      "izations": 2616,
      "ailed": 2617,
      "Ġwebs": 2618,
      "Ġlarger": 2619,
      "Ġtrust": 2620,
      "Ġinfin": 2621,
      "</": 2622,
      "Ġcompon": 2623,
      "Ġimplic": 2624,
      "Ġlay": 2625,
      "Ġmis": 2626,
      "Ġservice": 2627,
      "Ġagainst": 2628,
      "--------": 2629,
      "orem": 2630,
      "head": 2631,
      "Ġdifferences": 2632,
      "met": 2633,
      "Ġproblems": 2634,
      "Ġassoci": 2635,
      "First": 2636,
      "Ġindicates": 2637,
      "ug": 2638,
      "Ġmor": 2639,
      "Ġbox": 2640,
      "Ġconsid": 2641,
      "ening": 2642,
      "ibilities": 2643,
      "ltimately": 2644,
      "Ġeither": 2645,
      "aves": 2646,
      "Ġflo": 2647,
      "')": 2648,
      "Ġamong": 2649,
      "Ġrespond": 2650,
      "rop": 2651,
      "Ġweight": 2652,
      "inc": 2653,
      "Ġrequires": 2654,
      "pir": 2655,
      "ferences": 2656,
      "Ġselect": 2657,
      "text": 2658,
      "Ġstrategy": 2659,
      "Ġtradition": 2660,
      "ification": 2661,
      "selves": 2662,
      "Ġauthor": 2663,
      "ership": 2664,
      "Ġpurpose": 2665,
      "Ġability": 2666,
      "ording": 2667,
      "ius": 2668,
      "Ġfundam": 2669,
      "atives": 2670,
      "Ġdirectly": 2671,
      "tic": 2672,
      "Ġparticip": 2673,
      "ĠZ": 2674,
      "Ġexploring": 2675,
      "irm": 2676,
      "istics": 2677,
      "ici": 2678,
      "Ġcombination": 2679,
      "Ġassess": 2680,
      "Ġwilling": 2681,
      "Ġquick": 2682,
      "Ġdel": 2683,
      "ĠTherefore": 2684,
      "Ġcalled": 2685,
      "Ġface": 2686,
      "Ġfeeling": 2687,
      "Ġlocation": 2688,
      "emember": 2689,
      "Ġsche": 2690,
      "Ġbo": 2691,
      "Ġclimbs": 2692,
      "Ġtransition": 2693,
      "Ġeducation": 2694,
      "Ġreport": 2695,
      "enge": 2696,
      "ival": 2697,
      "Ġculture": 2698,
      "uth": 2699,
      "ĊĠĠĠĠĠ": 2700,
      "iddle": 2701,
      "Ġpattern": 2702,
      "Ġwom": 2703,
      "Finally": 2704,
      "Ġput": 2705,
      "Ġrecommend": 2706,
      "Ġinterested": 2707,
      "Ġtrip": 2708,
      "amb": 2709,
      "Ġprice": 2710,
      "])": 2711,
      "Ġbar": 2712,
      "Next": 2713,
      "Ġmeeting": 2714,
      "Ġraise": 2715,
      "count": 2716,
      "co": 2717,
      "ternatively": 2718,
      "eper": 2719,
      "arily": 2720,
      "Ġcause": 2721,
      "ON": 2722,
      "sum": 2723,
      "Ġinformed": 2724,
      "iment": 2725,
      "tt": 2726,
      "ware": 2727,
      "lines": 2728,
      "Ġprioritize": 2729,
      "Ġreli": 2730,
      "haps": 2731,
      "Ġdescribe": 2732,
      "ĠCom": 2733,
      "my": 2734,
      "Ġgame": 2735,
      "Ġwide": 2736,
      "Ġalong": 2737,
      "Ġur": 2738,
      "Ġinterpret": 2739,
      "aur": 2740,
      "duct": 2741,
      "aching": 2742,
      "enue": 2743,
      "Ġcreative": 2744,
      "Ġphrases": 2745,
      "actions": 2746,
      "phr": 2747,
      "Ġaspects": 2748,
      "Best": 2749,
      "ott": 2750,
      "ream": 2751,
      "Ġremo": 2752,
      "Ġindex": 2753,
      "Ġcompet": 2754,
      "Ġexer": 2755,
      "Ġcontinue": 2756,
      "Ġdepth": 2757,
      "Ġbelieve": 2758,
      "Ġlot": 2759,
      "Ġcho": 2760,
      "agon": 2761,
      "uly": 2762,
      "Ġtransport": 2763,
      "icle": 2764,
      "Ġcell": 2765,
      "Ġintern": 2766,
      "^{": 2767,
      "Ġstudent": 2768,
      "Em": 2769,
      "ests": 2770,
      "Ġfollows": 2771,
      "Ġminutes": 2772,
      "Ġmajor": 2773,
      "Ġfalse": 2774,
      "anged": 2775,
      "cal": 2776,
      "Ġeffects": 2777,
      "part": 2778,
      "Ġded": 2779,
      "inst": 2780,
      "Ġfocusing": 2781,
      "olution": 2782,
      "ares": 2783,
      "enced": 2784,
      "Ġpresence": 2785,
      "ouble": 2786,
      "ret": 2787,
      "ĠEng": 2788,
      "Ġhighlight": 2789,
      "Ġconfidence": 2790,
      "Ġmental": 2791,
      "Ġrat": 2792,
      "Ġsummary": 2793,
      "Ġpromot": 2794,
      "ifying": 2795,
      "Ġconsidered": 2796,
      "erate": 2797,
      "leep": 2798,
      "Ġsuper": 2799,
      "lict": 2800,
      "ĠÎ": 2801,
      "Ġeyes": 2802,
      "ĠSo": 2803,
      "Ġtable": 2804,
      "go": 2805,
      "Ġtown": 2806,
      "aste": 2807,
      "cient": 2808,
      "Ġfundamental": 2809,
      "Ġpack": 2810,
      "Ġfinding": 2811,
      "Ġrout": 2812,
      "inter": 2813,
      "Ġexpertise": 2814,
      "ront": 2815,
      "Ġfull": 2816,
      "Ġmach": 2817,
      "Ġapproaches": 2818,
      "Ġenvironmental": 2819,
      "Ġengine": 2820,
      "Ġresulting": 2821,
      "Ġdetect": 2822,
      "mosp": 2823,
      "more": 2824,
      "Ġpurch": 2825,
      "Ġinfluence": 2826,
      "Ġdirection": 2827,
      "ĠOutput": 2828,
      "Ġdaily": 2829,
      "Ġreasoning": 2830,
      "Ġmodels": 2831,
      "Ġfour": 2832,
      "}\\": 2833,
      "akes": 2834,
      "ids": 2835,
      "Ġheav": 2836,
      "Ġexplan": 2837,
      "Ġsmaller": 2838,
      "Ġdivis": 2839,
      "Ġchallenging": 2840,
      "Ġadded": 2841,
      "Ġtail": 2842,
      "Ġcompan": 2843,
      "ĠOn": 2844,
      "ological": 2845,
      "Ġstarted": 2846,
      "Ġmen": 2847,
      "Ġjourney": 2848,
      "ĠDe": 2849,
      "Ġincreasing": 2850,
      "und": 2851,
      "Ġsuggestions": 2852,
      "Ġexamples": 2853,
      "Ultimately": 2854,
      "Ġopportunity": 2855,
      "Ġatmosp": 2856,
      "ury": 2857,
      "Ġful": 2858,
      "Since": 2859,
      "erve": 2860,
      "words": 2861,
      "Ġquant": 2862,
      "Ġuntil": 2863,
      "being": 2864,
      "Ġdone": 2865,
      "Ġrephr": 2866,
      "Ġgenerate": 2867,
      "alue": 2868,
      "stru": 2869,
      "Ġcolor": 2870,
      "vern": 2871,
      "input": 2872,
      "itude": 2873,
      "Ġdefin": 2874,
      "Ġprevent": 2875,
      "ER": 2876,
      "aris": 2877,
      "Ġmathematical": 2878,
      "Ġspread": 2879,
      "Ġchallenge": 2880,
      "Ġgives": 2881,
      "Ġobjects": 2882,
      "ground": 2883,
      "Ġbig": 2884,
      "Ġmaximum": 2885,
      "Ġbud": 2886,
      "Ġdeeper": 2887,
      "ived": 2888,
      "Ġsecurity": 2889,
      "hers": 2890,
      "Ġinterests": 2891,
      "Ġrow": 2892,
      "Ġscenari": 2893,
      "Ġadding": 2894,
      "Ġonce": 2895,
      "Ġchildren": 2896,
      "Ġswitch": 2897,
      "ber": 2898,
      "\".": 2899,
      "Ġstates": 2900,
      "gest": 2901,
      "Ġconflict": 2902,
      "equ": 2903,
      "meric": 2904,
      "Ġperspective": 2905,
      "Ġwarm": 2906,
      "Ġappre": 2907,
      "Ġindicate": 2908,
      "Ġdecre": 2909,
      "pper": 2910,
      "ĊĠĠ": 2911,
      "Ġzero": 2912,
      "based": 2913,
      "ault": 2914,
      "su": 2915,
      "Ġcomfort": 2916,
      "Ġlaw": 2917,
      "ium": 2918,
      "Ġgraph": 2919,
      "Ġpriv": 2920,
      "ĠInt": 2921,
      "Ġpopular": 2922,
      "Ġuseful": 2923,
      "Ġcontinuous": 2924,
      "wise": 2925,
      "rap": 2926,
      "Ġscience": 2927,
      "Ġscient": 2928,
      "ones": 2929,
      "Ġapproximately": 2930,
      "Ġtowards": 2931,
      "Ġcontains": 2932,
      "Ġactually": 2933,
      "Ġmonths": 2934,
      "Ġsalary": 2935,
      "ored": 2936,
      "Ġincreased": 2937,
      "Ġtoday": 2938,
      "uck": 2939,
      "aged": 2940,
      "Ġimplications": 2941,
      "Ġdark": 2942,
      "Ġeasier": 2943,
      "Ġconcepts": 2944,
      "down": 2945,
      "Ġfig": 2946,
      "On": 2947,
      "Ġtraditional": 2948,
      "Ġenough": 2949,
      "ÏĢ": 2950,
      "Ġcannot": 2951,
      "Ġcoo": 2952,
      "ĠWith": 2953,
      "Ġseason": 2954,
      "Ġresid": 2955,
      "ey": 2956,
      "Ġmaintaining": 2957,
      "ĠSome": 2958,
      "illed": 2959,
      "Ġrich": 2960,
      "mod": 2961,
      "Is": 2962,
      "Ġshape": 2963,
      "Ġearly": 2964,
      "Ġapplications": 2965,
      "Ġ%": 2966,
      "Ġproperty": 2967,
      "Ġhon": 2968,
      "Ġevaluate": 2969,
      "Ġwa": 2970,
      "ype": 2971,
      "Ch": 2972,
      "Ġprojects": 2973,
      "Ġincludes": 2974,
      "cast": 2975,
      "Ġconsum": 2976,
      "osing": 2977,
      "itle": 2978,
      "Ġorganization": 2979,
      "Ġrule": 2980,
      "Ġrates": 2981,
      "ules": 2982,
      "Ġoption": 2983,
      "Ġphot": 2984,
      "\"\"": 2985,
      "Ġgovern": 2986,
      "Ġexh": 2987,
      "Ġrob": 2988,
      "Ġthemselves": 2989,
      "Ġmention": 2990,
      "Ġfeelings": 2991,
      "nomial": 2992,
      "Ġpiece": 2993,
      "Ġmatter": 2994,
      "Ġeasy": 2995,
      "Ġnever": 2996,
      "Ġgard": 2997,
      "hood": 2998,
      "ĠNew": 2999,
      "Ġwebsite": 3000,
      "Ġpowerful": 3001,
      "Ġred": 3002,
      "oms": 3003,
      "These": 3004,
      "point": 3005,
      "resh": 3006,
      "oph": 3007,
      "Ġaware": 3008,
      "ifically": 3009,
      "Ġnetwork": 3010,
      "Ġheight": 3011,
      "file": 3012,
      "##": 3013,
      "Ġdeb": 3014,
      "use": 3015,
      "Ġtruth": 3016,
      "lection": 3017,
      "Ġport": 3018,
      "Ġsurround": 3019,
      "ilit": 3020,
      "Ġachie": 3021,
      "Ġunits": 3022,
      "Ġmeasures": 3023,
      "esp": 3024,
      "tr": 3025,
      "Ġassociated": 3026,
      "mit": 3027,
      "Ġdest": 3028,
      "ĠThen": 3029,
      "Ġrequired": 3030,
      "oun": 3031,
      "Ġlen": 3032,
      "Ġindeed": 3033,
      "Ġbrand": 3034,
      "Ġimprovement": 3035,
      "ffee": 3036,
      "Ġpolynomial": 3037,
      "Ġseems": 3038,
      "Ġcolum": 3039,
      "Ġderivative": 3040,
      "Ġtemperature": 3041,
      "Over": 3042,
      "Ġclimate": 3043,
      "Ġprecise": 3044,
      "oin": 3045,
      "Ġbecomes": 3046,
      "Ġloss": 3047,
      "Ġsources": 3048,
      "aff": 3049,
      "Ġrefine": 3050,
      "Ġlittle": 3051,
      "Ġstrings": 3052,
      "lier": 3053,
      "pers": 3054,
      "omin": 3055,
      "Ġeveryone": 3056,
      "Ġassist": 3057,
      "ops": 3058,
      "Ġcorresponding": 3059,
      "ĠNone": 3060,
      "Ġthroughout": 3061,
      "Ġmathematics": 3062,
      "ĠAlex": 3063,
      "vent": 3064,
      "Ġcamp": 3065,
      "Ġaccurate": 3066,
      "Ġratio": 3067,
      "zz": 3068,
      "Ġbudget": 3069,
      "Ġbuilt": 3070,
      "Therefore": 3071,
      "ĠSc": 3072,
      "Ġexisting": 3073,
      "Ġcomes": 3074,
      "Ġflex": 3075,
      "Ġdisplay": 3076,
      "Ġexactly": 3077,
      "Ġreducing": 3078,
      "Ġgrammar": 3079,
      "Ġmatrix": 3080,
      "uations": 3081,
      "Ġconsequences": 3082,
      "Ġliving": 3083,
      "Ġschedu": 3084,
      "ĠAmeric": 3085,
      "Ġyet": 3086,
      "Ġgeometric": 3087,
      "Ġdemand": 3088,
      "Ġactive": 3089,
      "orn": 3090,
      "Ġchance": 3091,
      "Ġconnections": 3092,
      "Ġsurface": 3093,
      "year": 3094,
      "Ġcred": 3095,
      "Ġtim": 3096,
      "Ġmatch": 3097,
      "ĠEach": 3098,
      "irt": 3099,
      "plain": 3100,
      "iet": 3101,
      "oney": 3102,
      "Ġaccept": 3103,
      "Ġoutcome": 3104,
      "Ġnote": 3105,
      "Ġsuitable": 3106,
      "Ġdesigned": 3107,
      "Ġlonger": 3108,
      "Ġpu": 3109,
      "ged": 3110,
      "Ġcalculated": 3111,
      "Ġimpl": 3112,
      "tract": 3113,
      "Ġ...": 3114,
      "gen": 3115,
      "Ġemail": 3116,
      "Ġsleep": 3117,
      "Ġoperations": 3118,
      "af": 3119,
      "Ġones": 3120,
      ")(": 3121,
      "Ġatmosphere": 3122,
      "Ġguidance": 3123,
      "Ġancient": 3124,
      "rt": 3125,
      "Ġcentral": 3126,
      "Ġassumptions": 3127,
      "Ġfail": 3128,
      "Ġnavigate": 3129,
      "max": 3130,
      "Ġpractice": 3131,
      "cknow": 3132,
      "Ġtal": 3133,
      "assert": 3134,
      "Ġchecks": 3135,
      "Ġlibr": 3136,
      "Ġsustainable": 3137,
      "Ġcore": 3138,
      "Ġconstruct": 3139,
      "Ġsubst": 3140,
      "Ġrelatively": 3141,
      "class": 3142,
      "ĠĠĠĠĠ": 3143,
      "Ġrestaur": 3144,
      "Ċĉĉ": 3145,
      "olute": 3146,
      "Ġhab": 3147,
      "Ġessay": 3148,
      "Ġoutside": 3149,
      "Ġcomprehensive": 3150,
      "Ġlack": 3151,
      "abilities": 3152,
      "Ġproduction": 3153,
      "Ġhypothesis": 3154,
      "Ġvide": 3155,
      "Ġoffers": 3156,
      "Ġchanged": 3157,
      "Ġslight": 3158,
      "care": 3159,
      "left": 3160,
      "idden": 3161,
      "inci": 3162,
      "Ġcompanies": 3163,
      "log": 3164,
      "Ġdivide": 3165,
      "Ġreson": 3166,
      "Ġgather": 3167,
      "Ġconsistent": 3168,
      "Ġnuanced": 3169,
      "Ġprimary": 3170,
      "Ġrevenue": 3171,
      "Ġwond": 3172,
      "elt": 3173,
      "Ġsignificance": 3174,
      "ĠInstead": 3175,
      "foot": 3176,
      "Ġroots": 3177,
      "Ġusage": 3178,
      "Ġensuring": 3179,
      "ork": 3180,
      "Ġmemory": 3181,
      "chan": 3182,
      "Ġfra": 3183,
      "Ġcompare": 3184,
      "Ġpressure": 3185,
      "Ġcoffee": 3186,
      "Ġrecord": 3187,
      "urthermore": 3188,
      "Ġtriangle": 3189,
      "Ġmix": 3190,
      "Ġdise": 3191,
      "Ġlives": 3192,
      "Ġremaining": 3193,
      "Ġdrive": 3194,
      "Ġtruly": 3195,
      "ler": 3196,
      "Ġattribut": 3197,
      "col": 3198,
      "Ġchart": 3199,
      "Ġcontribute": 3200,
      "Ġcircle": 3201,
      "ows": 3202,
      "Ġmiddle": 3203,
      "uro": 3204,
      "iar": 3205,
      "augh": 3206,
      "ĠJohn": 3207,
      "Ġfix": 3208,
      "},": 3209,
      "alf": 3210,
      "Ġframe": 3211,
      "Ġexpectations": 3212,
      "plit": 3213,
      "writing": 3214,
      "cript": 3215,
      "Ġactivity": 3216,
      "Ġfast": 3217,
      "Ġpropos": 3218,
      "encies": 3219,
      "Ġclean": 3220,
      "heck": 3221,
      "sp": 3222,
      "Ġinterval": 3223,
      "Alternatively": 3224,
      "Ġimmedi": 3225,
      "Ġremainder": 3226,
      "icial": 3227,
      "Ġ<<": 3228,
      "Ġground": 3229,
      "do": 3230,
      "abel": 3231,
      "Ġparent": 3232,
      "Ġfamil": 3233,
      "mon": 3234,
      "Ġprotect": 3235,
      "Ġlines": 3236,
      "date": 3237,
      "();": 3238,
      "Ġpolicy": 3239,
      "Ġsource": 3240,
      "IN": 3241,
      "Ġitem": 3242,
      "Ġdivided": 3243,
      "Ġthing": 3244,
      "load": 3245,
      "Ġtechnical": 3246,
      "Ġfavor": 3247,
      "Ġrepe": 3248,
      "Ġanything": 3249,
      "frac": 3250,
      "Remember": 3251,
      "ho": 3252,
      "ls": 3253,
      "ialog": 3254,
      "Ġweak": 3255,
      "Ġwar": 3256,
      "Ġedit": 3257,
      "Ġwritten": 3258,
      "cos": 3259,
      "bol": 3260,
      "Ġremains": 3261,
      "Ġobtain": 3262,
      "Ġmissing": 3263,
      "Ġfocused": 3264,
      "Ġsuff": 3265,
      "Ġfun": 3266,
      "Ġimag": 3267,
      "Ġwatch": 3268,
      "astic": 3269,
      "fl": 3270,
      "Ġresearc": 3271,
      "Ġshows": 3272,
      "Com": 3273,
      "ĠTrue": 3274,
      "man": 3275,
      "Ġrisks": 3276,
      "Ġut": 3277,
      "Ġrecurs": 3278,
      "Ġbroad": 3279,
      "Ġann": 3280,
      "Ġbusinesses": 3281,
      "Ġdynamic": 3282,
      "ĠAt": 3283,
      "Ġstories": 3284,
      "Ġconvert": 3285,
      "Ġacknow": 3286,
      "ton": 3287,
      "ntic": 3288,
      "Ġdu": 3289,
      "Ġregard": 3290,
      "Ġtou": 3291,
      "ĠCl": 3292,
      "ĠIm": 3293,
      "Ġanx": 3294,
      "nown": 3295,
      "Ġtu": 3296,
      "Ġencourage": 3297,
      "Ġapply": 3298,
      "like": 3299,
      "Ġcover": 3300,
      "rig": 3301,
      "Ġincreases": 3302,
      "ordin": 3303,
      "Ġsatisfaction": 3304,
      "ĠFalse": 3305,
      "Ġmill": 3306,
      "Ġdepart": 3307,
      "Ġbreat": 3308,
      "Ġ:": 3309,
      "making": 3310,
      "Ġregion": 3311,
      "Ġpaper": 3312,
      "Ġdetailed": 3313,
      "Ġoffering": 3314,
      "iveness": 3315,
      "Ġmist": 3316,
      "Ġfields": 3317,
      "Ġeverything": 3318,
      "Ġcraft": 3319,
      "Ġconcern": 3320,
      "Ġleg": 3321,
      "Ġmechan": 3322,
      "Ġsus": 3323,
      "hentic": 3324,
      "rid": 3325,
      "Ġprinci": 3326,
      "Ġvariance": 3327,
      "Ġexec": 3328,
      "Ġindicating": 3329,
      "Ġcat": 3330,
      "gebra": 3331,
      "obal": 3332,
      "Ġsuccessful": 3333,
      "Ġsafe": 3334,
      "inations": 3335,
      "place": 3336,
      "\">": 3337,
      "Ġanalyzing": 3338,
      "Ġlat": 3339,
      "imens": 3340,
      "ceed": 3341,
      "Ġult": 3342,
      "Ġfindings": 3343,
      "Ġspeak": 3344,
      "Ġprograms": 3345,
      "Ġwon": 3346,
      "Ġuncertain": 3347,
      "Ġrepresentation": 3348,
      "Ġhappy": 3349,
      "Ġmanager": 3350,
      "Ġupon": 3351,
      "Ġbackground": 3352,
      "idth": 3353,
      "Ġassign": 3354,
      "Ġremember": 3355,
      "Ġcultural": 3356,
      "My": 3357,
      "ulations": 3358,
      "ser": 3359,
      "da": 3360,
      "Ġplant": 3361,
      "Ġund": 3362,
      "void": 3363,
      "adem": 3364,
      "Ġreality": 3365,
      "Ġlaunch": 3366,
      "life": 3367,
      "Int": 3368,
      "Ġnull": 3369,
      "Ġlive": 3370,
      "Ġdocument": 3371,
      "Ġappears": 3372,
      "Ġschedule": 3373,
      "Ġbullet": 3374,
      "Ġexpens": 3375,
      "Ġintegr": 3376,
      "Ġboundaries": 3377,
      "Ġsoftware": 3378,
      "olving": 3379,
      "ĠPer": 3380,
      "aly": 3381,
      "ulate": 3382,
      "Ġstatistics": 3383,
      "Ġpractices": 3384,
      "Ġdigital": 3385,
      "Ġnoting": 3386,
      "Ġpremises": 3387,
      "Ġadvance": 3388,
      "icit": 3389,
      "fact": 3390,
      "vide": 3391,
      "itation": 3392,
      "Ġgreen": 3393,
      "Ġcarefully": 3394,
      "Ġtesting": 3395,
      "Ġparts": 3396,
      "ĠPl": 3397,
      "Ġtests": 3398,
      "Ġreveal": 3399,
      "ms": 3400,
      "Ġblack": 3401,
      "Ġhot": 3402,
      "Ġodd": 3403,
      "Ġcontrast": 3404,
      "ured": 3405,
      "Ġediting": 3406,
      "Ġlists": 3407,
      "Ġopp": 3408,
      "Ġdesired": 3409,
      "Ġproport": 3410,
      "hest": 3411,
      "(\\": 3412,
      "Ġdead": 3413,
      "veys": 3414,
      "Ġsection": 3415,
      "ĊĊĠĠĠĠĠĠĠ": 3416,
      "Ġlimited": 3417,
      "from": 3418,
      "Ġillust": 3419,
      "Ġreading": 3420,
      "Ġslips": 3421,
      "imin": 3422,
      "Ġexercise": 3423,
      "Ġspent": 3424,
      "Ġemerg": 3425,
      "Ġlif": 3426,
      "Ġsmooth": 3427,
      "Ġslow": 3428,
      "amed": 3429,
      "Ġfair": 3430,
      "append": 3431,
      "Ġsafety": 3432,
      "oration": 3433,
      "Ġmodern": 3434,
      "SE": 3435,
      "lear": 3436,
      "Ġcut": 3437,
      "Ġinvolved": 3438,
      "bo": 3439,
      "Ġspaces": 3440,
      "Ġweather": 3441,
      "ception": 3442,
      "qrt": 3443,
      "Ġprepared": 3444,
      "Ġcharacteristics": 3445,
      "Ġintent": 3446,
      "}{": 3447,
      "Ġidentity": 3448,
      "ST": 3449,
      "Ġefforts": 3450,
      "Ġstraight": 3451,
      "rect": 3452,
      "Ġinteresting": 3453,
      "Ġvisualization": 3454,
      "test": 3455,
      "Ġauthentic": 3456,
      "yond": 3457,
      "Ġeye": 3458,
      "ialogue": 3459,
      "Ġquickly": 3460,
      "eue": 3461,
      "Ġleave": 3462,
      "Ġdate": 3463,
      "Ġappe": 3464,
      "ĠEarth": 3465,
      "miss": 3466,
      "Ġeconomic": 3467,
      "sub": 3468,
      "Ġcard": 3469,
      "Ġtaken": 3470,
      "Ġpreserv": 3471,
      "Ġmass": 3472,
      "AT": 3473,
      "way": 3474,
      "Ġbinary": 3475,
      "Ġdedic": 3476,
      "lusive": 3477,
      "Ġrequirements": 3478,
      "oud": 3479,
      "Ġstream": 3480,
      "Ġmagn": 3481,
      "Ġpartner": 3482,
      "Ġste": 3483,
      "ipment": 3484,
      "ĠUsing": 3485,
      "ĠInd": 3486,
      "osed": 3487,
      "ĠJava": 3488,
      "Ġdam": 3489,
      "array": 3490,
      "Ġmachine": 3491,
      "Ġfresh": 3492,
      "Ġactual": 3493,
      "iciency": 3494,
      "Ġtopic": 3495,
      "score": 3496,
      ")$": 3497,
      "Ġobjective": 3498,
      "Ġord": 3499,
      "Ġprefer": 3500,
      "Ġexpand": 3501,
      "where": 3502,
      "Ġsymmet": 3503,
      "Ġprec": 3504,
      "Ġconduct": 3505,
      "Ġaccording": 3506,
      "Ġinfinite": 3507,
      "Ġwalk": 3508,
      "Ġshap": 3509,
      "Ġshared": 3510,
      "otal": 3511,
      "Ġplatforms": 3512,
      "Ġappreci": 3513,
      "Ġant": 3514,
      "uff": 3515,
      "Ġcenter": 3516,
      "Ġhost": 3517,
      "Ġveh": 3518,
      "Ġcos": 3519,
      "rics": 3520,
      "pected": 3521,
      "Ġinterview": 3522,
      "Ġbott": 3523,
      "Ġstatements": 3524,
      "Ġspeed": 3525,
      "iversity": 3526,
      "Ġmultip": 3527,
      "Ġ_": 3528,
      "Ġunit": 3529,
      "Ġstack": 3530,
      "ched": 3531,
      "Ġalgebra": 3532,
      "Ġmode": 3533,
      "Ġharm": 3534,
      "hich": 3535,
      "Ġstructures": 3536,
      "Ġpotentially": 3537,
      "Ġincome": 3538,
      "Ġpatient": 3539,
      "Ġcountry": 3540,
      "Ġarrange": 3541,
      "Ġhistorical": 3542,
      "Ġwhole": 3543,
      "uild": 3544,
      "Ġdefined": 3545,
      "Ġcreates": 3546,
      "aks": 3547,
      "Ġbeyond": 3548,
      "alls": 3549,
      "']": 3550,
      "ĠOr": 3551,
      "lated": 3552,
      "holders": 3553,
      "Ã©": 3554,
      "Ġengagement": 3555,
      "Ġmoney": 3556,
      "++": 3557,
      "Ġblood": 3558,
      "ĊĠĠĠĠĠĠĠĠĠĠĠĠĠĠĠĠĠĠĠ": 3559,
      "Ġsorted": 3560,
      "Ġblock": 3561,
      "Ġtransportation": 3562,
      "dent": 3563,
      "Ġpict": 3564,
      "Ġcollaboration": 3565,
      "ighb": 3566,
      "empt": 3567,
      "Overall": 3568,
      "Ġimplies": 3569,
      "Ġpercentage": 3570,
      "rad": 3571,
      "Ġhelpful": 3572,
      "Ġinnovative": 3573,
      "ĠEmily": 3574,
      "'(": 3575,
      "ales": 3576,
      "Ġ\"\"\"": 3577,
      "Ġadvice": 3578,
      "iful": 3579,
      "Ġperspectives": 3580,
      "Ġfive": 3581,
      "Ġdescriptive": 3582,
      "Ġplease": 3583,
      "ĠRes": 3584,
      "ban": 3585,
      "lights": 3586,
      "Ġadvanced": 3587,
      "Ġremind": 3588,
      "Ġbreath": 3589,
      "Ġexplicit": 3590,
      "ynt": 3591,
      "ached": 3592,
      "ewrite": 3593,
      "gment": 3594,
      "ying": 3595,
      "rome": 3596,
      "cy": 3597,
      "Ġassert": 3598,
      "Ġhidden": 3599,
      "âĪ": 3600,
      "Ġidentifying": 3601,
      "ativity": 3602,
      "Ġready": 3603,
      "Ġrelax": 3604,
      "ably": 3605,
      "odes": 3606,
      "Ġslightly": 3607,
      "Ġcomponents": 3608,
      "Ġproduce": 3609,
      "Ġtour": 3610,
      "ensity": 3611,
      "Ġcyc": 3612,
      "Ġdeli": 3613,
      "cur": 3614,
      "Ġdeveloping": 3615,
      "Ġmid": 3616,
      "Ġhear": 3617,
      "ffic": 3618,
      "ĠÂ": 3619,
      "char": 3620,
      "Ġnecessarily": 3621,
      "ologies": 3622,
      "Ġdepending": 3623,
      "Data": 3624,
      "Ġdialogue": 3625,
      "Ġpassion": 3626,
      "ĠCal": 3627,
      "friend": 3628,
      "Cl": 3629,
      "asons": 3630,
      "Ġtree": 3631,
      "Ġment": 3632,
      "Ġobserved": 3633,
      "Ġvary": 3634,
      "ĠChanged": 3635,
      "Ġbelow": 3636,
      "atory": 3637,
      "Ġtreatment": 3638,
      "wed": 3639,
      "view": 3640,
      "Ġcolleag": 3641,
      "Ġincred": 3642,
      "Ġoverw": 3643,
      ")/": 3644,
      "bit": 3645,
      "Ġmeaningful": 3646,
      "Ġfrequency": 3647,
      "Ġseparate": 3648,
      "Ġbooks": 3649,
      "ternal": 3650,
      "Ġaff": 3651,
      "ened": 3652,
      "ĠSp": 3653,
      "ĠRewrite": 3654,
      "isms": 3655,
      "pelling": 3656,
      "ĠInc": 3657,
      "Ġsam": 3658,
      "Ġrecent": 3659,
      "Ġnames": 3660,
      "ello": 3661,
      "ambda": 3662,
      "Ġplants": 3663,
      "Ġmodule": 3664,
      "ĠSim": 3665,
      "Ġtheorem": 3666,
      "Ġprocesses": 3667,
      "Ġdefine": 3668,
      "Ġestimate": 3669,
      "Ġcollection": 3670,
      "Ġwaste": 3671,
      "Given": 3672,
      "Ġseeking": 3673,
      "oub": 3674,
      "Ġsubtract": 3675,
      "Ġwanted": 3676,
      "Ġ+=": 3677,
      "Ġflaw": 3678,
      "'.": 3679,
      "Ġlater": 3680,
      "Ġtax": 3681,
      "But": 3682,
      "roup": 3683,
      "Ġoptim": 3684,
      "etime": 3685,
      "atter": 3686,
      ")`": 3687,
      "ites": 3688,
      "Ġpreferences": 3689,
      "Ġimage": 3690,
      "Ġlink": 3691,
      "icles": 3692,
      "olve": 3693,
      "igation": 3694,
      "Ġcop": 3695,
      "Ġexperiment": 3696,
      "Ġequipment": 3697,
      "Ġestim": 3698,
      "rees": 3699,
      "Ġdoor": 3700,
      "size": 3701,
      "med": 3702,
      "Ġscene": 3703,
      "Ġextra": 3704,
      "Ġattract": 3705,
      "Ġfallacy": 3706,
      "lished": 3707,
      "Ġhighly": 3708,
      "Ġstaff": 3709,
      "Ġlost": 3710,
      "Ġlandsc": 3711,
      "Ġplots": 3712,
      "Ġquart": 3713,
      "Ġincorporating": 3714,
      "Ġhealthy": 3715,
      "AR": 3716,
      "Ġduplic": 3717,
      "Ġmentioned": 3718,
      "ont": 3719,
      "Ġmonit": 3720,
      "Ġbelie": 3721,
      "most": 3722,
      "adr": 3723,
      "omain": 3724,
      "ze": 3725,
      "Ġanxiety": 3726,
      "acies": 3727,
      "Ġoverwhel": 3728,
      "Ġmoving": 3729,
      "Ġremove": 3730,
      "Using": 3731,
      "Ġlies": 3732,
      "Ġhands": 3733,
      "ellig": 3734,
      "ðŁ": 3735,
      "Ġtouch": 3736,
      "world": 3737,
      "Ġdriving": 3738,
      "Ġnotice": 3739,
      "Ġsix": 3740,
      "Ġimmers": 3741,
      "ĠEnglish": 3742,
      "['": 3743,
      "Ġmedical": 3744,
      "Ġapplication": 3745,
      "Ġheat": 3746,
      "bb": 3747,
      "Ġacadem": 3748,
      "Ġleaving": 3749,
      "icro": 3750,
      "Ġexcited": 3751,
      "Ġtension": 3752,
      "oyal": 3753,
      "Ġsubtle": 3754,
      "Ġextract": 3755,
      "overy": 3756,
      "Ġvill": 3757,
      "Ġbasic": 3758,
      "une": 3759,
      "Ġhalf": 3760,
      "ios": 3761,
      "Ġiniti": 3762,
      "Ġhighlights": 3763,
      "Ġfire": 3764,
      "Ġmagic": 3765,
      "Ġsect": 3766,
      "Ġserve": 3767,
      "Ġpriorities": 3768,
      "Ġexhib": 3769,
      "Ġcompelling": 3770,
      "LE": 3771,
      "aign": 3772,
      "Ġprivate": 3773,
      "Ġ[]": 3774,
      "agn": 3775,
      "Ġri": 3776,
      "Ġcreated": 3777,
      "Ġinner": 3778,
      "sole": 3779,
      "Ġshift": 3780,
      "alind": 3781,
      "Ġfeature": 3782,
      "irtual": 3783,
      "struction": 3784,
      "index": 3785,
      "Ġabsolute": 3786,
      "Ġfoundation": 3787,
      "ĠThat": 3788,
      "Ġcities": 3789,
      "Ġrunning": 3790,
      "ump": 3791,
      "Ġcounter": 3792,
      "Ġbeautiful": 3793,
      "}}": 3794,
      "alueError": 3795,
      "Ġexplanation": 3796,
      "Ġgovernment": 3797,
      "arrow": 3798,
      "outh": 3799,
      "earch": 3800,
      "Ġglobal": 3801,
      "Ġrepresented": 3802,
      "Ġspecifically": 3803,
      "Ġadvant": 3804,
      "Ġled": 3805,
      "Ġsituations": 3806,
      "Ġfasc": 3807,
      "Ġsolar": 3808,
      "Ġearlier": 3809,
      "Ġblue": 3810,
      "Ġneighb": 3811,
      "arah": 3812,
      "Ġattempt": 3813,
      "Ġid": 3814,
      "Ġmanner": 3815,
      "ĠNow": 3816,
      "Ġbiases": 3817,
      "Ġslip": 3818,
      "Ġcoin": 3819,
      "Ġdouble": 3820,
      "Ġnode": 3821,
      "Ġarch": 3822,
      "Ġmyst": 3823,
      "Ġwild": 3824,
      "Ġfigure": 3825,
      "arg": 3826,
      "Ġcomputer": 3827,
      "Ġdiverse": 3828,
      "known": 3829,
      "orld": 3830,
      "Ġing": 3831,
      "result": 3832,
      "Please": 3833,
      "Ġmotivations": 3834,
      "ĠÃ": 3835,
      "Ġsounds": 3836,
      "Ġopening": 3837,
      "Ġstri": 3838,
      "While": 3839,
      "eks": 3840,
      "Ġminimum": 3841,
      "roduct": 3842,
      "Ġstd": 3843,
      "Ġgiving": 3844,
      "Ġagree": 3845,
      "Ġcatch": 3846,
      "Ġchann": 3847,
      "Ġletter": 3848,
      "Ġeffort": 3849,
      "Ġmyself": 3850,
      "agonist": 3851,
      "Ġusually": 3852,
      "Ġdelic": 3853,
      "ĠSe": 3854,
      "Ġpromote": 3855,
      "Ġexpon": 3856,
      "ĠEn": 3857,
      "Ġletters": 3858,
      "tra": 3859,
      "bon": 3860,
      "ĠMay": 3861,
      "Ġtitle": 3862,
      "Ġinteractions": 3863,
      "Ġkeys": 3864,
      "Ġscenario": 3865,
      "Ġsharing": 3866,
      "Ġhelping": 3867,
      "Ġimproved": 3868,
      "Ġattend": 3869,
      "Ġlibrary": 3870,
      "sort": 3871,
      "Ġsil": 3872,
      "Ġhour": 3873,
      "Ġstrengths": 3874,
      "ints": 3875,
      "era": 3876,
      "_{\\": 3877,
      "Ġfeels": 3878,
      "arer": 3879,
      "Ġet": 3880,
      "alle": 3881,
      "Note": 3882,
      "ĠDr": 3883,
      "ommod": 3884,
      "And": 3885,
      "Ġquadr": 3886,
      "List": 3887,
      "Ġconfirm": 3888,
      "Ġbri": 3889,
      "():": 3890,
      "Ġpron": 3891,
      "ean": 3892,
      "âĢĿ": 3893,
      "Ġsess": 3894,
      "Ġcampaign": 3895,
      "Ġreliable": 3896,
      "Ġcand": 3897,
      "Ġtraffic": 3898,
      "Ġenter": 3899,
      "oes": 3900,
      "Ġcircum": 3901,
      "type": 3902,
      "Ġdeveloped": 3903,
      "Ġdegree": 3904,
      "ĠAdd": 3905,
      "Ġscale": 3906,
      "Ġmit": 3907,
      "Ġmanip": 3908,
      "Ġprices": 3909,
      "CT": 3910,
      "opt": 3911,
      "String": 3912,
      "Ġresponsibilities": 3913,
      "Ġultimately": 3914,
      "Ġdisease": 3915,
      "Ġprogramming": 3916,
      "Ġtalk": 3917,
      "encing": 3918,
      "icing": 3919,
      "Ġgarden": 3920,
      "Ġrestaurant": 3921,
      "Ġcompared": 3922,
      "Ġmath": 3923,
      "Hello": 3924,
      "Ġintegral": 3925,
      "Ġcross": 3926,
      "Ġappli": 3927,
      "Ġregards": 3928,
      "Ġdevi": 3929,
      "apan": 3930,
      "ifies": 3931,
      "Ġsymbol": 3932,
      "sec": 3933,
      "Ġthr": 3934,
      "Ġattack": 3935,
      "Furthermore": 3936,
      "ested": 3937,
      "values": 3938,
      "py": 3939,
      "Ġroad": 3940,
      "Ġcommunicate": 3941,
      "Ġworked": 3942,
      "Ġaccom": 3943,
      "eral": 3944,
      "ĠUS": 3945,
      "Ġyield": 3946,
      "Ġpractical": 3947,
      "Ġnamed": 3948,
      "ik": 3949,
      "Ġhonest": 3950,
      "ibly": 3951,
      "RE": 3952,
      "Ġrules": 3953,
      "Ġlisten": 3954,
      "Ġaccuracy": 3955,
      "Ġmetrics": 3956,
      "Ġweb": 3957,
      "Ġswe": 3958,
      "Ġvideo": 3959,
      "Ġencount": 3960,
      "Ġlogic": 3961,
      "Hi": 3962,
      "ĠMake": 3963,
      "Ġspecies": 3964,
      "omen": 3965,
      "Ġreplace": 3966,
      "Ġorganizations": 3967,
      "Ġquite": 3968,
      "Ġautom": 3969,
      "Ġcontact": 3970,
      "Ġvector": 3971,
      "Ġinsight": 3972,
      "Ġinterse": 3973,
      "Ġfarm": 3974,
      "Ġconclusions": 3975,
      "Ġgenerally": 3976,
      "ull": 3977,
      "atable": 3978,
      "length": 3979,
      "Emily": 3980,
      "Ġisol": 3981,
      "Ġwhis": 3982,
      "alindrome": 3983,
      "Ġclosely": 3984,
      "ocation": 3985,
      "Ġinteractive": 3986,
      "Ġfinds": 3987,
      "ĊĠĠĠĠĠĠĠĠĠĠĠĠĠĠĠĠĠĠĠĠ": 3988,
      "iring": 3989,
      "step": 3990,
      "Ġfue": 3991,
      "off": 3992,
      "Ġoccurs": 3993,
      "Ġwoman": 3994,
      "Ġunex": 3995,
      "Ġcomfortable": 3996,
      "Ġverb": 3997,
      "Ġaccommod": 3998,
      "Ġintellig": 3999,
      "Ġforest": 4000,
      "ĠCo": 4001,
      "Ġoperation": 4002,
      "Ġlimitations": 4003,
      "ĠLe": 4004,
      "Ġappreciate": 4005,
      "rets": 4006,
      "ĠOur": 4007,
      "Ġcategories": 4008,
      "Ġplans": 4009,
      "Ġcolumn": 4010,
      "Ġgradu": 4011,
      "Ġforce": 4012,
      "Re": 4013,
      "oon": 4014,
      "Ġhighest": 4015,
      "That": 4016,
      "rong": 4017,
      "ried": 4018,
      "ued": 4019,
      "Ġevaluating": 4020,
      "Ġrobust": 4021,
      "())": 4022,
      "Ġpush": 4023,
      "Ġkn": 4024,
      "With": 4025,
      "Ġrain": 4026,
      "Ġchanging": 4027,
      "Ġeasily": 4028,
      "Ġclearly": 4029,
      "Ġboo": 4030,
      "Ġax": 4031,
      "Ġangle": 4032,
      "Ġpatients": 4033,
      "cell": 4034,
      "Ġconnected": 4035,
      "Ġoffice": 4036,
      "Ġdevices": 4037,
      "java": 4038,
      "Ġadds": 4039,
      "ĠEuro": 4040,
      "friendly": 4041,
      "Ġ(-": 4042,
      "Ġconfident": 4043,
      "Ġcontradict": 4044,
      "Ġsin": 4045,
      "squ": 4046,
      "onic": 4047,
      "ĠRet": 4048,
      "Ġpartn": 4049,
      "Ġir": 4050,
      "reg": 4051,
      "ĠâĪļ": 4052,
      "eep": 4053,
      "Ġpros": 4054,
      "Ġpairs": 4055,
      "Ġthreat": 4056,
      "Ġforms": 4057,
      "Ġprotagonist": 4058,
      "Ġacademic": 4059,
      "mb": 4060,
      "ĠJapan": 4061,
      "Ġfascin": 4062,
      "Use": 4063,
      "book": 4064,
      "Ġcolors": 4065,
      "ĠReg": 4066,
      "Ġlargest": 4067,
      "Ġhor": 4068,
      "Ġmemories": 4069,
      "Ġamb": 4070,
      "Ġefficiency": 4071,
      "ĠAmerican": 4072,
      "Ġstudies": 4073,
      "ancing": 4074,
      "umber": 4075,
      "Ġnut": 4076,
      "Some": 4077,
      "Ġdemonstrate": 4078,
      "anging": 4079,
      "Ġclearer": 4080,
      "len": 4081,
      "Ġmillion": 4082,
      "Ġequations": 4083,
      "Ar": 4084,
      "Ġnic": 4085,
      "Ġspir": 4086,
      "address": 4087,
      "pha": 4088,
      "Ġanim": 4089,
      "Ġdidn": 4090,
      "acing": 4091,
      "Ġaccessible": 4092,
      "Ġplanet": 4093,
      "Ġprofession": 4094,
      "Ġdrawing": 4095,
      "Ġcam": 4096,
      "Ġvariability": 4097,
      "Ġasking": 4098,
      "Ġchoices": 4099,
      "icients": 4100,
      "ians": 4101,
      "Ġtechnologies": 4102,
      "Ġwin": 4103,
      "Ġcou": 4104,
      "ĠFinally": 4105,
      "Ġenth": 4106,
      "iverse": 4107,
      "ĠBl": 4108,
      "Ġstatic": 4109,
      "Ġcapture": 4110,
      "Ġship": 4111,
      "fill": 4112,
      "ĠAd": 4113,
      "Ġweeks": 4114,
      "div": 4115,
      "Ġtips": 4116,
      "Ġdependent": 4117,
      "Ġpark": 4118,
      "Ġbottom": 4119,
      "with": 4120,
      "Ġmember": 4121,
      "Ġintu": 4122,
      "Ġconveys": 4123,
      "ux": 4124,
      "Ġexploration": 4125,
      "ister": 4126,
      "Ġchecking": 4127,
      "Ġcomparis": 4128,
      "Ġaddressing": 4129,
      "script": 4130,
      "Ġmov": 4131,
      "Ġexpressed": 4132,
      "Ġexamine": 4133,
      "Ġvariety": 4134,
      "Ġinvestment": 4135,
      "Ġcurve": 4136,
      "Ġsmart": 4137,
      "Ġmission": 4138,
      "eleb": 4139,
      "Ċĉ": 4140,
      "ountain": 4141,
      "ask": 4142,
      "Ġloyal": 4143,
      "Ġcomprehension": 4144,
      "Ġparty": 4145,
      "Ġfear": 4146,
      "Ġadvent": 4147,
      "Ġ__": 4148,
      "ithmetic": 4149,
      "ĠApp": 4150,
      "anks": 4151,
      "Ġcoordin": 4152,
      "Ġimmediately": 4153,
      "Ġthemes": 4154,
      "valid": 4155,
      "Ġbeauty": 4156,
      "Ġrelatable": 4157,
      "Ġsuggested": 4158,
      "Ġinterpretation": 4159,
      "imensional": 4160,
      "cking": 4161,
      "Ġign": 4162,
      "Ġdeal": 4163,
      "instance": 4164,
      "rust": 4165,
      "Ġlocations": 4166,
      "Ġshop": 4167,
      "Ġperhaps": 4168,
      "Ġpassage": 4169,
      "Ġincorporate": 4170,
      "Ġpersonality": 4171,
      "iding": 4172,
      "Ġworksh": 4173,
      "ĠEurope": 4174,
      "Ġopin": 4175,
      "De": 4176,
      "Ġcalls": 4177,
      "nderstand": 4178,
      "Ġtechnique": 4179,
      "ĠUnited": 4180,
      "uration": 4181,
      "Ġcommand": 4182,
      "Ġrot": 4183,
      "Ġcolleagues": 4184,
      "nesses": 4185,
      "Ġhealthcare": 4186,
      "coming": 4187,
      "Ġsays": 4188,
      "Ġâī¡": 4189,
      "Ġsurvey": 4190,
      "ided": 4191,
      "Ġapplied": 4192,
      "Ġcoefficients": 4193,
      "culate": 4194,
      "ĠPh": 4195,
      "Ġsold": 4196,
      "oke": 4197,
      "Ġtook": 4198,
      "$.": 4199,
      "Ġweigh": 4200,
      "Ġarticle": 4201,
      ".\")": 4202,
      "usi": 4203,
      "Ent": 4204,
      "Ġcompos": 4205,
      "Ġdiscussion": 4206,
      "Ġmorning": 4207,
      "Ġintended": 4208,
      "Ġnumerous": 4209,
      "Ġpow": 4210,
      "Ġnews": 4211,
      "Ġleaves": 4212,
      "Ġunf": 4213,
      "Ġsurpr": 4214,
      "Ġexperienced": 4215,
      "Ġsecrets": 4216,
      "Ġphone": 4217,
      "ĠNo": 4218,
      "Ġreasons": 4219,
      "Ġadjustments": 4220,
      "$,": 4221,
      "ĠData": 4222,
      "Ġseek": 4223,
      ".)": 4224,
      "Ġimmersive": 4225,
      "rm": 4226,
      "Ġpicture": 4227,
      "Ġvirtual": 4228,
      "ags": 4229,
      "Ġcauses": 4230,
      "Ġparameter": 4231,
      "Ġmyster": 4232,
      "Ġminimize": 4233,
      "Ġsecure": 4234,
      "Ġdepends": 4235,
      "Ġpan": 4236,
      "order": 4237,
      "ĠĠĠĠĠĠ": 4238,
      "pid": 4239,
      "ID": 4240,
      "Ġroles": 4241,
      "Ġgrowing": 4242,
      "number": 4243,
      "ech": 4244,
      "Ġclassic": 4245,
      "ansion": 4246,
      "Ġparameters": 4247,
      "Ġwood": 4248,
      "Ġapart": 4249,
      "Ġinsp": 4250,
      "Ġclasses": 4251,
      "Ġpage": 4252,
      "Res": 4253,
      "ĠâĢľ": 4254,
      "ĠPr": 4255,
      "cosystem": 4256,
      "pass": 4257,
      "Ġphen": 4258,
      "Ġjoy": 4259,
      "Ġcreativity": 4260,
      "Ġassume": 4261,
      "oming": 4262,
      "iate": 4263,
      "Ġdevice": 4264,
      "ocol": 4265,
      "pri": 4266,
      "Ġpossibilities": 4267,
      "Ġenthusi": 4268,
      "Ġspecified": 4269,
      "necess": 4270,
      "urance": 4271,
      "Ġballs": 4272,
      "Ġutil": 4273,
      "Ġoperator": 4274,
      "$\\": 4275,
      "though": 4276,
      "ĠMany": 4277,
      "wness": 4278,
      "Ġdomain": 4279,
      "Ġstronger": 4280,
      "Ġtendency": 4281,
      "Ġdiscover": 4282,
      "Ġsolid": 4283,
      "oding": 4284,
      "ĠFirst": 4285,
      "Ġblog": 4286,
      "Ġreplaced": 4287,
      "Ġprepare": 4288,
      "Ġcausing": 4289,
      "Ġsigns": 4290,
      "Ġscientific": 4291,
      "Ġexpenses": 4292,
      "sm": 4293,
      "Ġice": 4294,
      "Ġburn": 4295,
      "hy": 4296,
      "Ġinside": 4297,
      "Ġcontaining": 4298,
      "rupt": 4299,
      "iced": 4300,
      "Ġdeviations": 4301,
      "onac": 4302,
      "Ġstage": 4303,
      "works": 4304,
      "Ġinstall": 4305,
      "Ġcountries": 4306,
      "Ġgre": 4307,
      "Ġvolume": 4308,
      "Ġvac": 4309,
      "Ġsoon": 4310,
      "Ġecosystem": 4311,
      "Ġexists": 4312,
      "egin": 4313,
      "Ġcommunities": 4314,
      "att": 4315,
      "Ġgas": 4316,
      "([": 4317,
      "Ġquadratic": 4318,
      "Ġmarkdown": 4319,
      "lls": 4320,
      "agine": 4321,
      "Ġdescription": 4322,
      "Ġdepend": 4323,
      "cd": 4324,
      "ml": 4325,
      "Ġdegrees": 4326,
      "Ġwal": 4327,
      "Ġrefer": 4328,
      "Ġuniverse": 4329,
      "hing": 4330,
      "onacci": 4331,
      "ĠMr": 4332,
      "ckets": 4333,
      "necessary": 4334,
      "Ġuncertainty": 4335,
      "Ġleads": 4336,
      "Ġradius": 4337,
      "Ġobservations": 4338,
      "dis": 4339,
      "Ġvibr": 4340,
      "Ġretain": 4341,
      "Ġsimplify": 4342,
      "Ġpun": 4343,
      "Ġimpactful": 4344,
      "Ġingred": 4345,
      "Ġfloat": 4346,
      "ĠSystem": 4347,
      "ibonacci": 4348,
      "Ġcents": 4349,
      "Ġequival": 4350,
      "Ġwonder": 4351,
      "Ġresearchers": 4352,
      "Ġsea": 4353,
      "Ġintric": 4354,
      "ĠðŁ": 4355,
      "ĠWorld": 4356,
      "Ġconv": 4357,
      "Ġmodify": 4358,
      "Ġarithmetic": 4359,
      "Ġphenomen": 4360,
      "going": 4361,
      "sy": 4362,
      "Ġpossibility": 4363,
      "Ġmovement": 4364,
      "Ġtrees": 4365,
      "Ġgold": 4366,
      "Ġclust": 4367,
      "Ġabilities": 4368,
      "Ġfacilit": 4369,
      "Ġwomen": 4370,
      "Ġqual": 4371,
      "Ġinnovation": 4372,
      "Ġcommitment": 4373,
      "ĠIdent": 4374,
      "Ġtransformation": 4375,
      "Ġlab": 4376,
      "urt": 4377,
      "Ġelimin": 4378,
      "ky": 4379,
      "ĠComm": 4380,
      "Ġlatest": 4381,
      "Ġfixed": 4382,
      "Ġliter": 4383,
      "Ġtuple": 4384,
      "Ġchain": 4385,
      "ta": 4386,
      "na": 4387,
      "kay": 4388,
      "Ġdefault": 4389,
      "Ġbenefit": 4390,
      "function": 4391,
      "Ġprepar": 4392,
      "eta": 4393,
      "Ġspend": 4394,
      "ned": 4395,
      "vere": 4396,
      "Ġcool": 4397,
      "Ġexternal": 4398,
      "ĠAfter": 4399,
      "hand": 4400,
      "True": 4401,
      "ĠGo": 4402,
      "Ġbrief": 4403,
      "Ġstruggle": 4404,
      "Ġtimel": 4405,
      "pat": 4406,
      "Ġunnecessary": 4407,
      "Ġstarts": 4408,
      "Ġeffectiveness": 4409,
      "pling": 4410,
      "Ġdefinition": 4411,
      "Ġ->": 4412,
      "Ġcells": 4413,
      "Ġfant": 4414,
      "Ġmedic": 4415,
      "Ġmut": 4416,
      "Ġchem": 4417,
      "He": 4418,
      "ulner": 4419,
      "Ġconstra": 4420,
      "Ġexplicitly": 4421,
      "ony": 4422,
      ".'": 4423,
      "ĠPlease": 4424,
      "ender": 4425,
      "forward": 4426,
      "Ġdatasets": 4427,
      "Ġaligns": 4428,
      "orth": 4429,
      "ĠSu": 4430,
      "Ġshad": 4431,
      "ina": 4432,
      "Ġpresented": 4433,
      "Ġcapital": 4434,
      "Ġrecently": 4435,
      "Ġfallacies": 4436,
      "Ġ<=": 4437,
      "ĠAss": 4438,
      "Ġwrong": 4439,
      "ography": 4440,
      "ĠFr": 4441,
      "Ġdigits": 4442,
      "Ġnovel": 4443,
      "cean": 4444,
      "rans": 4445,
      "Ġbeginning": 4446,
      "Ġroutine": 4447,
      "Ġreceive": 4448,
      "Ġmap": 4449,
      "Ġpurchase": 4450,
      "anges": 4451,
      "Ġbur": 4452,
      "onsist": 4453,
      ">>": 4454,
      "lean": 4455,
      "ctors": 4456,
      "Ġesc": 4457,
      "Ġunexpected": 4458,
      "Ġedge": 4459,
      "Ġdrawn": 4460,
      "Ġvi": 4461,
      "Ġphysics": 4462,
      "Ġgrand": 4463,
      "Ġtopics": 4464,
      "Ġdamage": 4465,
      "Ġrephrased": 4466,
      "ifications": 4467,
      "NA": 4468,
      "Ġclients": 4469,
      "lies": 4470,
      "tical": 4471,
      "Ġwidth": 4472,
      "Ġintentions": 4473,
      "(-": 4474,
      "Ġsensitive": 4475,
      "rete": 4476,
      "cer": 4477,
      "ormal": 4478,
      "vis": 4479,
      "Ġvision": 4480,
      "Ġceleb": 4481,
      "Ġahead": 4482,
      "Ġmodul": 4483,
      "ervation": 4484,
      "main": 4485,
      "Ġhighlighting": 4486,
      "Ġintelligence": 4487,
      "Ġmindful": 4488,
      "orage": 4489,
      "Ġgeometry": 4490,
      "ĠValueError": 4491,
      "ufact": 4492,
      "Ġexception": 4493,
      "ensive": 4494,
      "Ġbrain": 4495,
      "Ġlandscape": 4496,
      "iff": 4497,
      "bl": 4498,
      "Ġshowc": 4499,
      "igned": 4500,
      "Ġhol": 4501,
      "Ġachieved": 4502,
      "Ġstruggling": 4503,
      "adox": 4504,
      "OR": 4505,
      "Ġrequest": 4506,
      "Ġkids": 4507,
      "Ġbulb": 4508,
      "Ġrefers": 4509,
      "Create": 4510,
      "Ġvulner": 4511,
      "Ġflexible": 4512,
      "esc": 4513,
      "Ġconference": 4514,
      "Ġshown": 4515,
      "Ġreaches": 4516,
      "Ġsynt": 4517,
      "Ġintroduction": 4518,
      "ese": 4519,
      "Ġproductivity": 4520,
      "Ġillustrate": 4521,
      "ĠCol": 4522,
      "ĠCreate": 4523,
      "Ġalgorithms": 4524,
      "Ġstatus": 4525,
      "usion": 4526,
      "Ġclar": 4527,
      "Name": 4528,
      "po": 4529,
      "osen": 4530,
      "ĠDon": 4531,
      "Ġprofit": 4532,
      "Ġuns": 4533,
      "Ġemb": 4534,
      "ana": 4535,
      "Ġstake": 4536,
      "itect": 4537,
      "Ġmoments": 4538,
      "Ġmob": 4539,
      "Ġrational": 4540,
      "Ġrecognize": 4541,
      "Ġsquares": 4542,
      "Ġfill": 4543,
      "Ġessence": 4544,
      "change": 4545,
      "anger": 4546,
      "Ġsufficient": 4547,
      "eria": 4548,
      "Ġvisitors": 4549,
      "dri": 4550,
      "ael": 4551,
      "Ġwhite": 4552,
      "Ġcombined": 4553,
      "ognitive": 4554,
      "Ġrepresenting": 4555,
      "ĠComp": 4556,
      "Ġcurrently": 4557,
      "Ġfully": 4558,
      "espite": 4559,
      "Ġprofound": 4560,
      "roll": 4561,
      "Ġremoved": 4562,
      "Ġteac": 4563,
      "cont": 4564,
      "Ġproof": 4565,
      "ils": 4566,
      "Ġreput": 4567,
      "\");": 4568,
      "force": 4569,
      "Ġguests": 4570,
      "ĠSm": 4571,
      "Ġdoll": 4572,
      "Provide": 4573,
      "Ġunus": 4574,
      "init": 4575,
      "Ġcoming": 4576,
      "Ġprints": 4577,
      "inks": 4578,
      "rypt": 4579,
      "ĠRem": 4580,
      "xy": 4581,
      "Ġparagraphs": 4582,
      "Ġdividing": 4583,
      "Ġproportion": 4584,
      "Ġstudying": 4585,
      "Ġdistributed": 4586,
      "Ġround": 4587,
      "erson": 4588,
      "Ġwent": 4589,
      "Ġinval": 4590,
      "Ġisland": 4591,
      "onom": 4592,
      "Ġincorrect": 4593,
      "Ġstraightforward": 4594,
      "dom": 4595,
      "Ġvariation": 4596,
      "Ġsociety": 4597,
      "Ġimplementing": 4598,
      "find": 4599,
      "Ġcarbon": 4600,
      "active": 4601,
      "Yes": 4602,
      "Ġpresentation": 4603,
      "Ġdream": 4604,
      "Ġcub": 4605,
      "Ġkit": 4606,
      "raw": 4607,
      "Ġcrow": 4608,
      "Ġapplying": 4609,
      "ĠReturn": 4610,
      "Ġsite": 4611,
      "rist": 4612,
      "Ġcomponent": 4613,
      "Ġelectric": 4614,
      "Ġtrain": 4615,
      "ĠÏ": 4616,
      "Ġmil": 4617,
      "Ġcloser": 4618,
      "Ġstudied": 4619,
      "Ġcame": 4620,
      "Ġdeath": 4621,
      "ĠPerhaps": 4622,
      "cel": 4623,
      "Ġpreserving": 4624,
      "Ġpolit": 4625,
      "Ġnarrow": 4626,
      "ĠAvoid": 4627,
      "Ġmagical": 4628,
      "Ġdelicate": 4629,
      "Ġdecor": 4630,
      "Ġpieces": 4631,
      "iling": 4632,
      "Ġallowed": 4633,
      "Ġbrackets": 4634,
      "Ġcast": 4635,
      "lst": 4636,
      "Ġthread": 4637,
      "write": 4638,
      "tes": 4639,
      "Ġdivisible": 4640,
      "irth": 4641,
      "Ġaltern": 4642,
      "Ġreduced": 4643,
      "Ġsurv": 4644,
      "ĠMan": 4645,
      "iors": 4646,
      "Ġgent": 4647,
      "Ġasked": 4648,
      "ĠHer": 4649,
      "overed": 4650,
      "Ġfavorite": 4651,
      "Ġconven": 4652,
      "sych": 4653,
      "Ġbroader": 4654,
      "((": 4655,
      "Ġresponsible": 4656,
      "ĠYork": 4657,
      "Ġrely": 4658,
      "Ġvoid": 4659,
      "oted": 4660,
      "Ġtang": 4661,
      "item": 4662,
      "Ġregions": 4663,
      "house": 4664,
      "ison": 4665,
      "Ġclaims": 4666,
      "Ġisn": 4667,
      "Ġcards": 4668,
      "Ġresource": 4669,
      "Ġprinciples": 4670,
      "Ġaccompl": 4671,
      "Ġmultiply": 4672,
      "Ġpick": 4673,
      "Ġhabits": 4674,
      "Ġoptimize": 4675,
      "wer": 4676,
      "ĠStates": 4677,
      "****": 4678,
      "ocks": 4679,
      "Ġvisualize": 4680,
      "Ġteaching": 4681,
      "Ġpoll": 4682,
      "Ġsaying": 4683,
      "Ġwriter": 4684,
      "Ġmemor": 4685,
      "Ġconclude": 4686,
      "otes": 4687,
      "Ġbeneficial": 4688,
      "Ġmer": 4689,
      "ading": 4690,
      "Ġupdates": 4691,
      "Ġkeywords": 4692,
      "Ġdiet": 4693,
      "raft": 4694,
      "Ġshowing": 4695,
      "Ġplays": 4696,
      "tenance": 4697,
      "irect": 4698,
      "bre": 4699,
      "Ġheads": 4700,
      "Ġfascinating": 4701,
      "Ġupdate": 4702,
      "Ġskewed": 4703,
      "Ġalone": 4704,
      "Ġmanufact": 4705,
      "Ġbuy": 4706,
      "asure": 4707,
      "Ġhumans": 4708,
      "ipped": 4709,
      "://": 4710,
      "Ġbeg": 4711,
      "ief": 4712,
      "Ġdepartment": 4713,
      "Ġinspir": 4714,
      "Ġneighbor": 4715,
      "Ġdatab": 4716,
      "Ġmanageable": 4717,
      "ilos": 4718,
      "Ġspot": 4719,
      "Ġhandling": 4720,
      "Ġupper": 4721,
      "Ġfront": 4722,
      "Sh": 4723,
      "Ġfulfill": 4724,
      "Ġjud": 4725,
      "stack": 4726,
      "ogram": 4727,
      "None": 4728,
      "Ġparents": 4729,
      "Ġrapid": 4730,
      "tings": 4731,
      "Ġthri": 4732,
      "Ġanimals": 4733,
      "room": 4734,
      "Ġcomparing": 4735,
      "Ġcombinations": 4736,
      "map": 4737,
      "hetic": 4738,
      "uine": 4739,
      "Ġmiles": 4740,
      "neg": 4741,
      "Ġreaching": 4742,
      "ogle": 4743,
      "Ġassumption": 4744,
      "Ġprocessing": 4745,
      "Ġiterate": 4746,
      "mut": 4747,
      "Ġreceived": 4748,
      "Ġprompt": 4749,
      "related": 4750,
      "Ġobjectives": 4751,
      "Ġminor": 4752,
      "ref": 4753,
      "Ġingredients": 4754,
      "unc": 4755,
      "Ġclient": 4756,
      "ole": 4757,
      "Ġfilter": 4758,
      "Ġperforming": 4759,
      "Ġresponsibility": 4760,
      "ĠExample": 4761,
      "Ġenable": 4762,
      "Ġgames": 4763,
      "Ġresil": 4764,
      "Ġpuzz": 4765,
      "Ġpolicies": 4766,
      "Ġdates": 4767,
      "Ġscript": 4768,
      "Ġfish": 4769,
      "Ġsoil": 4770,
      "Ġacknowled": 4771,
      "Ġtold": 4772,
      "fil": 4773,
      "Ġexciting": 4774,
      "Ġsusp": 4775,
      "Ġwit": 4776,
      "Ġvert": 4777,
      "ĠOther": 4778,
      "ĠTheorem": 4779,
      "ĠQu": 4780,
      "Ġdog": 4781,
      "Ġinfluenced": 4782,
      "Ġbalanced": 4783,
      "Ġvict": 4784,
      "Ġengineering": 4785,
      "rates": 4786,
      "Ġresidents": 4787,
      "Ġacqu": 4788,
      "unning": 4789,
      "etimes": 4790,
      "Ġcandid": 4791,
      "Ġintroduce": 4792,
      "Ġtypical": 4793,
      "Ġeducational": 4794,
      "ding": 4795,
      "Ġplane": 4796,
      "ĠÃĹ": 4797,
      "Ġgets": 4798,
      "Ġdiscovery": 4799,
      "Ġlayer": 4800,
      "Ġoutdo": 4801,
      "Ġparticipants": 4802,
      "Ġdecrease": 4803,
      "rench": 4804,
      "Ġdecide": 4805,
      "rand": 4806,
      "agram": 4807,
      "efore": 4808,
      "Ġskewness": 4809,
      "Ġrenew": 4810,
      "Ġfriendly": 4811,
      "rated": 4812,
      "Ġheard": 4813,
      "board": 4814,
      "Ġsav": 4815,
      "Ġfiles": 4816,
      "RO": 4817,
      "Ġgrav": 4818,
      "Ġrect": 4819,
      "Ġshif": 4820,
      "Ġmystery": 4821,
      "Ġtens": 4822,
      "Ġongoing": 4823,
      "cut": 4824,
      "Reg": 4825,
      "Ġspark": 4826,
      "Ġcontinues": 4827,
      "Ġaccurately": 4828,
      "Ġmicro": 4829,
      "quality": 4830,
      "AN": 4831,
      "Sc": 4832,
      "next": 4833,
      ")]": 4834,
      "written": 4835,
      "ĠAll": 4836,
      "Ġbias": 4837,
      "bal": 4838,
      "Ġchat": 4839,
      "Ġquiet": 4840,
      "Ġdesp": 4841,
      "Ġkeeping": 4842,
      "Ġadult": 4843,
      "Ġcalculating": 4844,
      "Ġrough": 4845,
      "ĠTe": 4846,
      "dig": 4847,
      "Ġelif": 4848,
      "Ġcognitive": 4849,
      "orough": 4850,
      "Ġokay": 4851,
      "Ġensures": 4852,
      "ache": 4853,
      "split": 4854,
      "fit": 4855,
      "Ġdivision": 4856,
      "Ġtrig": 4857,
      "Ġvivid": 4858,
      "Ġsurrounding": 4859,
      "lambda": 4860,
      "Ġarri": 4861,
      "Ġhous": 4862,
      "Ġcollege": 4863,
      "Ġimages": 4864,
      "Ġcrew": 4865,
      "Ġarchitect": 4866,
      "df": 4867,
      "ĠSet": 4868,
      "Ġsustainability": 4869,
      "ĠSarah": 4870,
      "args": 4871,
      "Enter": 4872,
      "yl": 4873,
      "Ġframework": 4874,
      "arp": 4875,
      "Ġmountain": 4876,
      "Ġfamiliar": 4877,
      "Ġlearned": 4878,
      "Ġchosen": 4879,
      "Ġvast": 4880,
      "ley": 4881,
      "Ġsometimes": 4882,
      "Ġcoins": 4883,
      "Ġgenuine": 4884,
      "CD": 4885,
      "Ġcircumst": 4886,
      "Ġple": 4887,
      "Ġfelt": 4888,
      "Ġrise": 4889,
      "Ġstorage": 4890,
      "Ġcategory": 4891,
      "ED": 4892,
      "Ġsmallest": 4893,
      "====": 4894,
      "Ġreverse": 4895,
      "Ġartists": 4896,
      "[]": 4897,
      "Ġmitigate": 4898,
      "Ġtrade": 4899,
      "Ġattribute": 4900,
      "Ġsummer": 4901,
      "queue": 4902,
      "Ġdigit": 4903,
      "ĠWill": 4904,
      "Ġmort": 4905,
      "Ġotherwise": 4906,
      "stract": 4907,
      "Ġpossess": 4908,
      "axis": 4909,
      "using": 4910,
      "ractions": 4911,
      "Ġboard": 4912,
      "ww": 4913,
      "iver": 4914,
      "rown": 4915,
      ",\\": 4916,
      "Type": 4917,
      "Ġfollowed": 4918,
      "Ġpod": 4919,
      "Ġwatching": 4920,
      "Ġ@": 4921,
      "Ġrele": 4922,
      "ruit": 4923,
      "Ġimproving": 4924,
      "iner": 4925,
      "Ġmistakes": 4926,
      "Ġconversations": 4927,
      "Ġwra": 4928,
      "\"]": 4929,
      "Ġoverl": 4930,
      "Ġfa": 4931,
      "eter": 4932,
      "Ġstation": 4933,
      "items": 4934,
      "Ġslope": 4935,
      "ĠCity": 4936,
      "ĠHis": 4937,
      "Ġhar": 4938,
      "igu": 4939,
      "Ġinequ": 4940,
      "istance": 4941,
      "Ġcompletely": 4942,
      "Ġdedicated": 4943,
      "Ġolder": 4944,
      "Ġcorresponds": 4945,
      "Ġpeace": 4946,
      "Ġurg": 4947,
      "Ġsend": 4948,
      "Of": 4949,
      "Ġexpressions": 4950,
      "Ġrare": 4951,
      "Ġestablished": 4952,
      "fting": 4953,
      "Ġengaged": 4954,
      "Ġdealing": 4955,
      "Ġphilos": 4956,
      "Once": 4957,
      "Also": 4958,
      "Ġeager": 4959,
      "Ġlate": 4960,
      "requ": 4961,
      "ĠStart": 4962,
      "alpha": 4963,
      "Ġdensity": 4964,
      "Ġmaintenance": 4965,
      "Ġcold": 4966,
      "acity": 4967,
      "ouns": 4968,
      "Ġunusual": 4969,
      "dimensional": 4970,
      "}\")": 4971,
      "eterm": 4972,
      "John": 4973,
      "Ġinternal": 4974,
      "Ġhosp": 4975,
      "ĠAsk": 4976,
      "rical": 4977,
      "Ġnp": 4978,
      "Ġtap": 4979,
      "label": 4980,
      "structure": 4981,
      "Ġcomparison": 4982,
      "nal": 4983,
      "Ġconcent": 4984,
      "ores": 4985,
      "Ġdiscount": 4986,
      "LL": 4987,
      "Ġsuggesting": 4988,
      "Ġcycle": 4989,
      "fig": 4990,
      "ln": 4991,
      "ingu": 4992,
      "Ġadopt": 4993,
      "join": 4994,
      "----------------": 4995,
      "Ġrh": 4996,
      "Ġmanaging": 4997,
      "Ġep": 4998,
      "ament": 4999,
      "Ind": 5000,
      "Ġreturned": 5001,
      "othing": 5002,
      "Ġpsych": 5003,
      "Ġpursu": 5004,
      "Ġmemorable": 5005,
      "Ġsho": 5006,
      "Ġhabit": 5007,
      "Ġtherap": 5008,
      "Ġtransp": 5009,
      "Ġjoin": 5010,
      "Ġaffected": 5011,
      "aster": 5012,
      "htt": 5013,
      "ĠSoc": 5014,
      "Not": 5015,
      "Ġnothing": 5016,
      "ĠMark": 5017,
      "Ġscatter": 5018,
      "Ġplaces": 5019,
      "fix": 5020,
      "Ġpowers": 5021,
      "Ġcloud": 5022,
      "Ġemphasize": 5023,
      "Ġconflicts": 5024,
      "Ġselection": 5025,
      "Ġrealistic": 5026,
      "Ġstability": 5027,
      "Ġbegan": 5028,
      "Start": 5029,
      "gra": 5030,
      "cious": 5031,
      "Ġcalculation": 5032,
      "Ġplayer": 5033,
      "Ġurban": 5034,
      "Ġdiscussing": 5035,
      "Explain": 5036,
      "Â°": 5037,
      "airs": 5038,
      "SS": 5039,
      "ĠParis": 5040,
      "level": 5041,
      "used": 5042,
      "Ġholds": 5043,
      "rie": 5044,
      "Ġmaster": 5045,
      "ĠType": 5046,
      "Ġobserve": 5047,
      "Ġfilm": 5048,
      "%.": 5049,
      "Ġrating": 5050,
      "Ġbad": 5051,
      "Ġgentle": 5052,
      "Ġstatistically": 5053,
      "After": 5054,
      "Ġwidely": 5055,
      "ĠHigh": 5056,
      "Ġcalculates": 5057,
      "ounding": 5058,
      "nums": 5059,
      "igating": 5060,
      "working": 5061,
      "fraid": 5062,
      "lib": 5063,
      "Ġdecimal": 5064,
      "Based": 5065,
      "ĠTra": 5066,
      "linear": 5067,
      "igen": 5068,
      "Ġlooks": 5069,
      "Ġpub": 5070,
      "$$": 5071,
      "Ġtransfer": 5072,
      "ups": 5073,
      "Ġheavier": 5074,
      "Ġprofessionals": 5075,
      "Ġthorough": 5076,
      "ographic": 5077,
      "ams": 5078,
      "Ġfreed": 5079,
      "uing": 5080,
      "llo": 5081,
      "lations": 5082,
      "Ġ(`": 5083,
      "ourses": 5084,
      "Ġpolished": 5085,
      "kel": 5086,
      "Ġexistence": 5087,
      "Ġinfra": 5088,
      "Ġbackst": 5089,
      "ht": 5090,
      "Ġsupporting": 5091,
      "dep": 5092,
      "Ġwhereas": 5093,
      "SON": 5094,
      "Ġoccurre": 5095,
      "lement": 5096,
      "table": 5097,
      "ums": 5098,
      "ung": 5099,
      "Ġdetermined": 5100,
      "Ġstop": 5101,
      "Ġsecret": 5102,
      "Ġfamous": 5103,
      "EN": 5104,
      "ipping": 5105,
      "Ġhowever": 5106,
      "Ġafraid": 5107,
      "Ġocean": 5108,
      "Ġalloc": 5109,
      "bf": 5110,
      "Ġcalm": 5111,
      "uting": 5112,
      "asm": 5113,
      "Ġequivalent": 5114,
      "Ġtemperatures": 5115,
      "lower": 5116,
      "rep": 5117,
      "Ġdistributions": 5118,
      "ĠBrit": 5119,
      "Ġunknown": 5120,
      "solving": 5121,
      "iter": 5122,
      "Ġcohes": 5123,
      "Ġsupportive": 5124,
      "Ġpersonalized": 5125,
      "Ġlanguages": 5126,
      "Dear": 5127,
      "Ġwants": 5128,
      "ĠOver": 5129,
      "this": 5130,
      "ĠâĢĺ": 5131,
      "Ġspending": 5132,
      "Ġrecursive": 5133,
      "Ġmuse": 5134,
      "ĠCar": 5135,
      "Ġsaw": 5136,
      "Ġnearby": 5137,
      "Ġdespite": 5138,
      "Ġspirit": 5139,
      "Ġcorrectly": 5140,
      "ancy": 5141,
      "lor": 5142,
      "ĠNot": 5143,
      "uilding": 5144,
      "Ġefficiently": 5145,
      "public": 5146,
      "Ġadvantage": 5147,
      "Ġflexibility": 5148,
      "Ġneut": 5149,
      "driven": 5150,
      "ae": 5151,
      "ichael": 5152,
      "Ġdescribed": 5153,
      "Ġisinstance": 5154,
      "Ġprecision": 5155,
      "Ġcircumstances": 5156,
      "âĢĵ": 5157,
      "Ġstock": 5158,
      "ivil": 5159,
      "ĠFrench": 5160,
      "Ġsections": 5161,
      "Ġstakeholders": 5162,
      "));": 5163,
      "Ġgoes": 5164,
      "Ġanyone": 5165,
      "duc": 5166,
      "wo": 5167,
      "arant": 5168,
      ")\\": 5169,
      "ename": 5170,
      "Ġwel": 5171,
      "Ġcombining": 5172,
      "Ġplaying": 5173,
      "App": 5174,
      "Ġreward": 5175,
      "ĠMon": 5176,
      "avors": 5177,
      "Ġdesire": 5178,
      "Ġpunct": 5179,
      "pi": 5180,
      "Ġcharts": 5181,
      "Ġmodulo": 5182,
      "Ġproced": 5183,
      "Ġonto": 5184,
      "strings": 5185,
      "Ġviews": 5186,
      "Ġrepeated": 5187,
      "QL": 5188,
      "Ġserious": 5189,
      "Ġter": 5190,
      "Ġbrings": 5191,
      "Ġannual": 5192,
      "Ġintegration": 5193,
      "Ġearth": 5194,
      "Ġintrig": 5195,
      "unte": 5196,
      "Ġintricate": 5197,
      "Ġvibrant": 5198,
      "Ġdeliver": 5199,
      "Ġturned": 5200,
      "Ġpromoting": 5201,
      "power": 5202,
      "Ġsqrt": 5203,
      "Ġbed": 5204,
      "Ġfinally": 5205,
      "}(": 5206,
      "Ġ=>": 5207,
      "uries": 5208,
      "Ġtick": 5209,
      "Ġafford": 5210,
      "Ġcrowd": 5211,
      "Ġfem": 5212,
      "Alex": 5213,
      "Ġsty": 5214,
      "const": 5215,
      "Ġsalaries": 5216,
      "OV": 5217,
      "Ġgir": 5218,
      "ĠTV": 5219,
      "mathcal": 5220,
      "Ġindustries": 5221,
      "Ġconsistency": 5222,
      "Ġmeets": 5223,
      "Ġlogically": 5224,
      "Ġbird": 5225,
      "Ġmysterious": 5226,
      "Ġempath": 5227,
      "Ġexponential": 5228,
      "Ġ)": 5229,
      "Ġreject": 5230,
      "Ġcreation": 5231,
      "Ġquarter": 5232,
      "Ġjo": 5233,
      "Ġ!=": 5234,
      "Ġcook": 5235,
      "Ġparadox": 5236,
      "Ġscenarios": 5237,
      "Ġacknowledge": 5238,
      "Ġvalidity": 5239,
      "Ġdow": 5240,
      "ades": 5241,
      "Ġcourses": 5242,
      "Ġconsult": 5243,
      "Ġuncover": 5244,
      "oreover": 5245,
      "inf": 5246,
      "Ġquery": 5247,
      "Ġfinite": 5248,
      "Ġadventure": 5249,
      "Ġwat": 5250,
      "Ġsubstit": 5251,
      "ris": 5252,
      "Ġremote": 5253,
      "Ġexcite": 5254,
      "Ġincluded": 5255,
      "....": 5256,
      "Ġconsumption": 5257,
      "Ġdie": 5258,
      "Ġchannels": 5259,
      "no": 5260,
      "Ġstorm": 5261,
      "ĠGiven": 5262,
      "ĠBen": 5263,
      "Ġ$$\\": 5264,
      "lim": 5265,
      "Ġcarry": 5266,
      "Ġrecommendations": 5267,
      "pon": 5268,
      "Ġhappen": 5269,
      "Ġrent": 5270,
      "Ġpackage": 5271,
      "Ġbirth": 5272,
      "Ġmoves": 5273,
      "Ġresponses": 5274,
      "ev": 5275,
      "include": 5276,
      "ĠPar": 5277,
      "Ġconstruction": 5278,
      "ĠWould": 5279,
      "Ġantic": 5280,
      "Ġassistance": 5281,
      "Ġmenu": 5282,
      "Ġchoosing": 5283,
      "Ġaccordingly": 5284,
      "Ġveget": 5285,
      "Ġadvert": 5286,
      "Ġneighborhood": 5287,
      "ipp": 5288,
      "Ġvehicle": 5289,
      "Ġfest": 5290,
      "Ġunivers": 5291,
      "Ġfilled": 5292,
      "Ġsolving": 5293,
      "Ġinfinity": 5294,
      "pow": 5295,
      "False": 5296,
      "aint": 5297,
      "ĠCheck": 5298,
      "ounds": 5299,
      "Ġintuitive": 5300,
      "Ġmultiplic": 5301,
      "Ġpreviously": 5302,
      "ifact": 5303,
      "squared": 5304,
      "Ġago": 5305,
      "otic": 5306,
      "Ġweaknesses": 5307,
      "Ġpodcast": 5308,
      "what": 5309,
      "Ġwindow": 5310,
      "Ġrespectively": 5311,
      "atur": 5312,
      "effect": 5313,
      "field": 5314,
      "Un": 5315,
      "ĠJack": 5316,
      "mission": 5317,
      "Ġexcell": 5318,
      "Ġinitially": 5319,
      "ĠSpec": 5320,
      "Ġdisapp": 5321,
      "backs": 5322,
      "isc": 5323,
      "Ġincredible": 5324,
      "Ġpartnership": 5325,
      "Ġupdated": 5326,
      "Ġexamining": 5327,
      "Ġhimself": 5328,
      "ara": 5329,
      "Ġleadership": 5330,
      "Ġhyd": 5331,
      "Ġpoor": 5332,
      "obj": 5333,
      "Ġprove": 5334,
      "ously": 5335,
      "Ġreduction": 5336,
      "Ġbegins": 5337,
      "valu": 5338,
      "Ġdoub": 5339,
      "ands": 5340,
      "Ġinsurance": 5341,
      "Ġseemed": 5342,
      "Ġregardless": 5343,
      "]:": 5344,
      "Ġflu": 5345,
      "Ġcater": 5346,
      "Ġq": 5347,
      "Ġye": 5348,
      "ION": 5349,
      "ok": 5350,
      "Ġrecognizing": 5351,
      "Ġspeaking": 5352,
      "ĠThink": 5353,
      "Ġfather": 5354,
      "ĊĠĠĠĠĠĠĠĠĠ": 5355,
      "asy": 5356,
      "Ġfrust": 5357,
      "Ġbreaking": 5358,
      "Ġwealth": 5359,
      "Ġalmost": 5360,
      "Ġserves": 5361,
      "Ġfreedom": 5362,
      "ĠNational": 5363,
      "Ġsole": 5364,
      "All": 5365,
      "Ġextremely": 5366,
      "Ġlowercase": 5367,
      "At": 5368,
      "Ġshowcase": 5369,
      "ague": 5370,
      "Ġpassive": 5371,
      "Ġexplanations": 5372,
      "Ġrewritten": 5373,
      "cks": 5374,
      "Ġresonates": 5375,
      "Ġstars": 5376,
      "Ġcentury": 5377,
      "Ġfine": 5378,
      "Example": 5379,
      "ai": 5380,
      "Ġcontributing": 5381,
      "Ġrock": 5382,
      "Ġer": 5383,
      "ocal": 5384,
      "Ġdestination": 5385,
      "Ġtempor": 5386,
      "Ġstable": 5387,
      "Script": 5388,
      "Ġremoving": 5389,
      "Ġguarant": 5390,
      "Ġimprovements": 5391,
      "Ġanticip": 5392,
      "herence": 5393,
      "._": 5394,
      "Ġmole": 5395,
      "Or": 5396,
      "Ġinfrastructure": 5397,
      "Ġskin": 5398,
      "position": 5399,
      "Ġorigin": 5400,
      "Ġimply": 5401,
      "structions": 5402,
      "telling": 5403,
      "ĠCount": 5404,
      "node": 5405,
      "ĠRom": 5406,
      "ĠRep": 5407,
      "ressive": 5408,
      "Ġpronouns": 5409,
      "Ġcream": 5410,
      "Ġcomplement": 5411,
      "ĠThom": 5412,
      "Ġcomplexities": 5413,
      "Ġplayers": 5414,
      "ĊĊĠ": 5415,
      "ners": 5416,
      "ĠCor": 5417,
      "Ġreputation": 5418,
      "Ġcert": 5419,
      "Ġglass": 5420,
      "vest": 5421,
      "CA": 5422,
      "sqrt": 5423,
      "inner": 5424,
      "Ġclosed": 5425,
      "Ġ['": 5426,
      "ball": 5427,
      "`:": 5428,
      "Ġsignal": 5429,
      "Ġgrammat": 5430,
      "Ġavoiding": 5431,
      "Ġdecline": 5432,
      "Ġoppos": 5433,
      "Ġdenomin": 5434,
      "Ġforces": 5435,
      "Ġbecoming": 5436,
      "var": 5437,
      "Ġsympt": 5438,
      "orial": 5439,
      "ĠTest": 5440,
      "Ġvital": 5441,
      "Ġgenerated": 5442,
      "Ġnoticed": 5443,
      "Ġcritic": 5444,
      "iosity": 5445,
      "Ġgal": 5446,
      "Would": 5447,
      "ĠÏĢ": 5448,
      "osis": 5449,
      "ĠâīĪ": 5450,
      "Ġcareful": 5451,
      "Ġcouple": 5452,
      "Ġscope": 5453,
      "Ġwaiting": 5454,
      "Ġrecip": 5455,
      "Ġpassed": 5456,
      "flow": 5457,
      "person": 5458,
      "Ġfirm": 5459,
      "roud": 5460,
      "Ġfab": 5461,
      "std": 5462,
      "Ġstandards": 5463,
      "Qu": 5464,
      "chen": 5465,
      "Ġideal": 5466,
      "Ġintervals": 5467,
      "Ġexcitement": 5468,
      "wood": 5469,
      "prime": 5470,
      "ĠCont": 5471,
      "Sub": 5472,
      "Ġaspir": 5473,
      "Ġsem": 5474,
      "Ġemiss": 5475,
      "Ġdriven": 5476,
      "Cont": 5477,
      "Ġrevers": 5478,
      "tics": 5479,
      "Ġexclusive": 5480,
      "des": 5481,
      "Ġcategorical": 5482,
      "Ġconstraints": 5483,
      "Ġinitiatives": 5484,
      "Ġdatabase": 5485,
      "strict": 5486,
      "ML": 5487,
      "Ġwait": 5488,
      "Ġartist": 5489,
      "organ": 5490,
      "Ġshorter": 5491,
      "json": 5492,
      "Ġstaying": 5493,
      "Ġauthority": 5494,
      "Ġcompetitive": 5495,
      "Ġnickel": 5496,
      "Ġconj": 5497,
      "Ġinvestigation": 5498,
      "MA": 5499,
      "ener": 5500,
      "Ġalt": 5501,
      "Ġinconsist": 5502,
      "igma": 5503,
      "Ġresidual": 5504,
      "Ġsell": 5505,
      "rem": 5506,
      "__(": 5507,
      "izz": 5508,
      "SA": 5509,
      "Ġbin": 5510,
      "water": 5511,
      "Ġoil": 5512,
      "Ġoutdoor": 5513,
      "Ġhom": 5514,
      "ĠInclude": 5515,
      "Ġfight": 5516,
      "lihood": 5517,
      "ĠRec": 5518,
      "Implement": 5519,
      "Ġbehaviors": 5520,
      "Ġrows": 5521,
      "Ġsplit": 5522,
      "Ġhint": 5523,
      "Ġinverse": 5524,
      "Ġdynamics": 5525,
      "Ġovercome": 5526,
      "ĠMed": 5527,
      "Ġvehicles": 5528,
      "Ġinequality": 5529,
      "Ġrelease": 5530,
      "Ġmotivation": 5531,
      "urb": 5532,
      "Ġparalle": 5533,
      "Ġmaybe": 5534,
      "Ġrelies": 5535,
      "Ġregarding": 5536,
      "Ġ</": 5537,
      "Ġsizes": 5538,
      "}^": 5539,
      "Ġbackstory": 5540,
      "No": 5541,
      "ene": 5542,
      "empty": 5543,
      "agers": 5544,
      "Ġformer": 5545,
      "elta": 5546,
      "!\"": 5547,
      "Ġsave": 5548,
      "Ġinputs": 5549,
      "Ġhop": 5550,
      "Ġcaused": 5551,
      "ĠAN": 5552,
      "Ġgreatly": 5553,
      "Ġoverwhelming": 5554,
      "Ġhousehold": 5555,
      "Ġteams": 5556,
      "QR": 5557,
      "ĠStud": 5558,
      "Ġambigu": 5559,
      "Ġfuel": 5560,
      "}_": 5561,
      "Ġreached": 5562,
      "minist": 5563,
      "range": 5564,
      "ĠList": 5565,
      "Ġprinciple": 5566,
      "Ġworkshops": 5567,
      "Ġprote": 5568,
      "Ġentertain": 5569,
      "che": 5570,
      "Ġtargeted": 5571,
      "En": 5572,
      "ĠFibonacci": 5573,
      "Ġcuriosity": 5574,
      "ronic": 5575,
      "Ġpresenting": 5576,
      "Ġtalking": 5577,
      "Ġ($": 5578,
      "Ġfactorial": 5579,
      "aughter": 5580,
      "Ġsupply": 5581,
      "Ġmother": 5582,
      "Ġrhyth": 5583,
      "ishes": 5584,
      "Set": 5585,
      "izon": 5586,
      "DE": 5587,
      "Ġlie": 5588,
      "Ġgall": 5589,
      "Ġsampling": 5590,
      "Ass": 5591,
      "Ġfaster": 5592,
      "Ġvolunte": 5593,
      "Ġlinked": 5594,
      "ĠIdentify": 5595,
      "Ġdetective": 5596,
      "Ġtracking": 5597,
      "Ġcolumns": 5598,
      "Hey": 5599,
      "Ġlengths": 5600,
      "Ġinstr": 5601,
      "Ġexperim": 5602,
      "Ġconservation": 5603,
      "Ġequals": 5604,
      "Find": 5605,
      "Ġenvironments": 5606,
      "Ġforecast": 5607,
      "Ġboost": 5608,
      "oll": 5609,
      "IT": 5610,
      "Step": 5611,
      "Ġobservation": 5612,
      "Ġcorrelations": 5613,
      "Ġguess": 5614,
      "Ġquantum": 5615,
      "ĊĠĠĠĠĠĠĠĠĠĠĠĠĠĠĠĠĠĠĠĠĠĠĠĠĠĠĠĠ": 5616,
      "Ġcommonly": 5617,
      "Ġlifest": 5618,
      "Ġfloor": 5619,
      "Ġwalls": 5620,
      "Ġ--": 5621,
      "Ġdecl": 5622,
      "Ġconsideration": 5623,
      "Ġpunctuation": 5624,
      "Ġlighter": 5625,
      "iny": 5626,
      "Ġawareness": 5627,
      "rought": 5628,
      "Ġgreatest": 5629,
      "Ph": 5630,
      "Ġfacing": 5631,
      "Ġbelong": 5632,
      "Ġinj": 5633,
      "Ġfamilies": 5634,
      "itative": 5635,
      "rays": 5636,
      "Ġstrategic": 5637,
      "Comm": 5638,
      "Ġfost": 5639,
      "ificial": 5640,
      "Ġrenewable": 5641,
      "anch": 5642,
      "Ġavailability": 5643,
      "Ġconstructive": 5644,
      "ucl": 5645,
      "Ġjobs": 5646,
      "Ġreviews": 5647,
      "Ġdenoted": 5648,
      "Sim": 5649,
      "Ġscreen": 5650,
      "ĠUniversity": 5651,
      "Ġmeal": 5652,
      "})": 5653,
      "Ġviol": 5654,
      "Ġcapacity": 5655,
      "Ġchemical": 5656,
      "ĠResearch": 5657,
      "Ġshall": 5658,
      "ĊĠĠĠĠĊĠĠĠ": 5659,
      "td": 5660,
      "Ġduplicate": 5661,
      "Ġexperts": 5662,
      "poses": 5663,
      "Ġseeing": 5664,
      "ĠFe": 5665,
      "Ġestablishing": 5666,
      "ĠDevelop": 5667,
      "Ġcontract": 5668,
      "ĠJSON": 5669,
      "Ġpersu": 5670,
      "Ġartifact": 5671,
      "Ġfacilitate": 5672,
      "Ġreliability": 5673,
      "Ġdivers": 5674,
      "Ġtimeline": 5675,
      "ĠWest": 5676,
      "Ġfaced": 5677,
      "amma": 5678,
      "ros": 5679,
      "âĢĶ": 5680,
      "ilarly": 5681,
      "Ġconcerned": 5682,
      "Ġstar": 5683,
      "rs": 5684,
      "nderstanding": 5685,
      "Ġexpansion": 5686,
      "acking": 5687,
      "Ġpaths": 5688,
      "ĠGe": 5689,
      "Ġguidelines": 5690,
      "Ġspecialized": 5691,
      "Ġexcess": 5692,
      "Ġdict": 5693,
      "Ġworry": 5694,
      "vable": 5695,
      "ought": 5696,
      "Ġlabor": 5697,
      "Ġcollected": 5698,
      "Ġloyalty": 5699,
      "Ġmeditation": 5700,
      "asive": 5701,
      "fall": 5702,
      "ĠGoogle": 5703,
      "Ġaccomplish": 5704,
      "Ġcounts": 5705,
      "Ġmobile": 5706,
      "Ġentry": 5707,
      "Ġlocated": 5708,
      "Ġstores": 5709,
      "Ġperiods": 5710,
      "Ġinstit": 5711,
      "auses": 5712,
      "Ġpi": 5713,
      "Ġrepresentative": 5714,
      "Ġdesires": 5715,
      "ĠÂ±": 5716,
      "Ġnoise": 5717,
      "ĠChrist": 5718,
      "Ġformed": 5719,
      "Ġreaction": 5720,
      "Pl": 5721,
      "Imagine": 5722,
      "Ġsubse": 5723,
      "Ġrom": 5724,
      "begin": 5725,
      "Ġinvent": 5726,
      "Ġexpos": 5727,
      "Ġnormally": 5728,
      "Ġlistening": 5729,
      "Ġconsistently": 5730,
      "ĠEns": 5731,
      "Ġdollars": 5732,
      "Ġflavor": 5733,
      "trans": 5734,
      "Ġdrink": 5735,
      "Ġsou": 5736,
      "entence": 5737,
      "random": 5738,
      "Ġeleg": 5739,
      "Ġoverly": 5740,
      "Ġrig": 5741,
      "roid": 5742,
      "Ġbeach": 5743,
      "Ġstorytelling": 5744,
      "Id": 5745,
      "Ġalgebraic": 5746,
      "Ġiterates": 5747,
      "Ġcm": 5748,
      "Ġphotos": 5749,
      "Ġflat": 5750,
      "Ġcars": 5751,
      "ĠSub": 5752,
      "Ġreported": 5753,
      "Ġsensory": 5754,
      "Ġaffects": 5755,
      "Ġselected": 5756,
      "rec": 5757,
      "Ġdish": 5758,
      "Ġmovie": 5759,
      "Add": 5760,
      "Ġhistogram": 5761,
      "Ġkitchen": 5762,
      "Ġmatches": 5763,
      "angles": 5764,
      "ĠTake": 5765,
      "Ġbulbs": 5766,
      "avid": 5767,
      "Ġtwist": 5768,
      "Ġthrow": 5769,
      "Ġinteraction": 5770,
      "Ġempathy": 5771,
      "Ġsymptoms": 5772,
      "sorted": 5773,
      "Ġrein": 5774,
      "Ġflaws": 5775,
      "Ġloved": 5776,
      "Ġbond": 5777,
      "Ġhun": 5778,
      "Ġhotel": 5779,
      "pes": 5780,
      "Ġsessions": 5781,
      "Ġsamples": 5782,
      "From": 5783,
      "ĠJust": 5784,
      "frame": 5785,
      "Ġvisualizations": 5786,
      "rating": 5787,
      "Out": 5788,
      "Ġstruggles": 5789,
      "Ġanimal": 5790,
      "Ġbecame": 5791,
      "top": 5792,
      "Ġpret": 5793,
      "Ġinspect": 5794,
      "Ġangles": 5795,
      "itely": 5796,
      "inked": 5797,
      "Ġmodified": 5798,
      "ressed": 5799,
      "Ġretaining": 5800,
      "Ġfunding": 5801,
      "Ġseasonal": 5802,
      "Ġregularly": 5803,
      "Ġtried": 5804,
      "Ġassumes": 5805,
      "Ġpositions": 5806,
      "Ġpolice": 5807,
      "^(-": 5808,
      "rest": 5809,
      "mu": 5810,
      "Ġfears": 5811,
      "Ġpurposes": 5812,
      "Ġpen": 5813,
      "Ġskill": 5814,
      "Ġowner": 5815,
      "Ġpredictions": 5816,
      "Line": 5817,
      "Ġproperly": 5818,
      "Ġintersection": 5819,
      "amples": 5820,
      "Ġbill": 5821,
      "abol": 5822,
      "Do": 5823,
      "Ġfriendship": 5824,
      "Ġfaith": 5825,
      "bject": 5826,
      "which": 5827,
      "Ġraised": 5828,
      "Input": 5829,
      "Ġqueue": 5830,
      "herent": 5831,
      "Ġking": 5832,
      "Ġentirely": 5833,
      "ME": 5834,
      "ĠCent": 5835,
      "group": 5836,
      "Ġsweet": 5837,
      "Ġdx": 5838,
      "Ġconfig": 5839,
      "Ġexerc": 5840,
      "[\"": 5841,
      "Ġrealm": 5842,
      "PI": 5843,
      "Ġwalking": 5844,
      "abling": 5845,
      "Ġbrid": 5846,
      "while": 5847,
      ",'": 5848,
      "ĠRed": 5849,
      "Ġpricing": 5850,
      "Ġvillage": 5851,
      "Ġleader": 5852,
      "Ġcredit": 5853,
      "Ġ{}": 5854,
      "Ġabstract": 5855,
      "ira": 5856,
      "Ġincredibly": 5857,
      "ourage": 5858,
      "Ġson": 5859,
      "Ġclub": 5860,
      "leg": 5861,
      "ĠAlso": 5862,
      "ails": 5863,
      "Ġlimits": 5864,
      "Ġinh": 5865,
      "Ġlabel": 5866,
      "Ġfluct": 5867,
      "Ġcopy": 5868,
      "Ġcollaborative": 5869,
      "atically": 5870,
      "Ġcapabilities": 5871,
      "Ġcrime": 5872,
      "Ġcit": 5873,
      "Ġlifestyle": 5874,
      "Ġbreaks": 5875,
      "ĠCalculate": 5876,
      "aten": 5877,
      "free": 5878,
      "Time": 5879,
      "Ġfat": 5880,
      "Ġappeal": 5881,
      "Ġfailure": 5882,
      "Keep": 5883,
      "Ġexchange": 5884,
      "âĪļ": 5885,
      "Ġpet": 5886,
      "Ġdiscovered": 5887,
      "Ġhappiness": 5888,
      "Ġfoster": 5889,
      "bar": 5890,
      "ĠAm": 5891,
      "];": 5892,
      "flo": 5893,
      "Ġdro": 5894,
      "='": 5895,
      "Ġtheme": 5896,
      "Ġtough": 5897,
      "Ġincreasingly": 5898,
      "Ġwhose": 5899,
      "Ġmessages": 5900,
      "Ġpace": 5901,
      "first": 5902,
      "Ġsevere": 5903,
      "format": 5904,
      "Ġimplemented": 5905,
      "Ġrestrict": 5906,
      "Ġmotion": 5907,
      "aught": 5908,
      "ĠMe": 5909,
      "Ġcooking": 5910,
      "Ġdictionaries": 5911,
      "Ġedits": 5912,
      "olved": 5913,
      "ny": 5914,
      "Ġmargin": 5915,
      "Ġessentially": 5916,
      "Ġaims": 5917,
      "Ġcompetition": 5918,
      "Ġcoherence": 5919,
      "Ġexperiencing": 5920,
      "Ġraises": 5921,
      "ĊĠĠĠĠĠĠĠĠĠĠĠĠĠĠĠĠĠĠĠĠĠĠĠ": 5922,
      "Ġexhibit": 5923,
      "Ġabsor": 5924,
      "Ġreadability": 5925,
      "Ġinternational": 5926,
      "Our": 5927,
      "Ġorganic": 5928,
      "Ġeconomy": 5929,
      "Ġvisiting": 5930,
      "ĠPe": 5931,
      "Ġevening": 5932,
      "Ġappropri": 5933,
      "Ġsubset": 5934,
      "Ġscan": 5935,
      "ĠGerm": 5936,
      "ĠChar": 5937,
      "Ġexcellent": 5938,
      "Ġsubstant": 5939,
      "Ġheavy": 5940,
      "Ġaspirations": 5941,
      "Ġsli": 5942,
      "ferent": 5943,
      "Ġmajority": 5944,
      "ester": 5945,
      "Ġrewrite": 5946,
      "Ġbright": 5947,
      "Ġcredibility": 5948,
      "Ġdetermining": 5949,
      "ĠMod": 5950,
      "Ġlikelihood": 5951,
      "idents": 5952,
      "Ġscal": 5953,
      "can": 5954,
      "Ġpaint": 5955,
      "Develop": 5956,
      "Ġexecut": 5957,
      "long": 5958,
      "Ġroll": 5959,
      "Ġwillingness": 5960,
      "Ġsky": 5961,
      "sit": 5962,
      "eries": 5963,
      "orrow": 5964,
      "Ġdiscussions": 5965,
      "Ġreferred": 5966,
      "Ġmodeling": 5967,
      "ĠOnce": 5968,
      "Ġcompleted": 5969,
      "Ġchef": 5970,
      "Ġtraits": 5971,
      "umn": 5972,
      "Ġhospital": 5973,
      "ĠBar": 5974,
      "Ġschools": 5975,
      "Ġload": 5976,
      "Ġmindset": 5977,
      "Ġhappens": 5978,
      "azing": 5979,
      "Ġoffic": 5980,
      "Ġverify": 5981,
      "Ġcy": 5982,
      "Ġtow": 5983,
      "cho": 5984,
      "Ġorg": 5985,
      "Ġreference": 5986,
      "Ġarrive": 5987,
      "Ġnumerical": 5988,
      "Ġmoral": 5989,
      "Ġcivil": 5990,
      "Ġguard": 5991,
      "gy": 5992,
      "check": 5993,
      "Ġagreement": 5994,
      "ĠJavaScript": 5995,
      "Ġcollaborate": 5996,
      "Ġarise": 5997,
      "reaching": 5998,
      "Su": 5999,
      "][": 6000,
      "Ġ(\"": 6001,
      "Ġbak": 6002,
      "den": 6003,
      "Ġstructured": 6004,
      "gence": 6005,
      "mber": 6006,
      "stit": 6007,
      "Ġmonitoring": 6008,
      "gram": 6009,
      "jav": 6010,
      "Ġnotes": 6011,
      "Ġdishes": 6012,
      "Ġfraction": 6013,
      "arithm": 6014,
      "Ġemissions": 6015,
      "Ġfabric": 6016,
      "gar": 6017,
      "Ġmusc": 6018,
      "negative": 6019,
      "Ġâī¤": 6020,
      "Ġmotivated": 6021,
      "/(": 6022,
      "antic": 6023,
      "Ġphase": 6024,
      "Ġfrequently": 6025,
      "Ġdeeply": 6026,
      "Class": 6027,
      "Ġtwice": 6028,
      "ĠUs": 6029,
      "Ġimpacts": 6030,
      "Ġmonitor": 6031,
      "gments": 6032,
      "Ġpuzzle": 6033,
      "ĠGree": 6034,
      "Ġstrange": 6035,
      "Ġobtained": 6036,
      "Ġstreet": 6037,
      "Ġofficial": 6038,
      "Ġdenominator": 6039,
      "Ġseconds": 6040,
      "Ġalternatives": 6041,
      "Ġdiss": 6042,
      "Ġscientists": 6043,
      "Ġcontributions": 6044,
      "Ġenables": 6045,
      "Ġcombine": 6046,
      "ĠLook": 6047,
      "instorm": 6048,
      "Ġetc": 6049,
      "reet": 6050,
      "connect": 6051,
      "cs": 6052,
      "Ġrecyc": 6053,
      "powered": 6054,
      "Ġphilosoph": 6055,
      "Ġwife": 6056,
      "Ġcohesive": 6057,
      "lock": 6058,
      "Ġnerv": 6059,
      "Ġsquared": 6060,
      "matrix": 6061,
      "Ġgrant": 6062,
      "paramet": 6063,
      "II": 6064,
      "Ġmonthly": 6065,
      "ĠFrom": 6066,
      "Ġrepet": 6067,
      "gon": 6068,
      "Ġknew": 6069,
      "Ġinvested": 6070,
      "Ġsupports": 6071,
      "Ġvictim": 6072,
      "pace": 6073,
      "Ġconfront": 6074,
      "ashion": 6075,
      "Col": 6076,
      "Ġclarify": 6077,
      "points": 6078,
      "Ġinvolving": 6079,
      "ĠAf": 6080,
      "Ġupcoming": 6081,
      "Ġevaluation": 6082,
      "Ġdirectory": 6083,
      "Ġbank": 6084,
      "Ġmood": 6085,
      "ĠSec": 6086,
      "Ġhistor": 6087,
      "Ġsolely": 6088,
      "Ġnuc": 6089,
      "Ġcommitted": 6090,
      "Ġlaws": 6091,
      "Ġproceed": 6092,
      "\";": 6093,
      "Ġsched": 6094,
      "Ġresilience": 6095,
      "Ġconveying": 6096,
      "Ġworkers": 6097,
      "Thank": 6098,
      "asp": 6099,
      "Ġminim": 6100,
      "Ġadults": 6101,
      "Ġenabling": 6102,
      "Ġbatter": 6103,
      "Ġdraft": 6104,
      "Ġsmell": 6105,
      "Ġtalent": 6106,
      "Ġteacher": 6107,
      "digit": 6108,
      "rat": 6109,
      "Ġrelaxation": 6110,
      "Ġpremise": 6111,
      "Ġdram": 6112,
      "redict": 6113,
      "Ġselecting": 6114,
      "reshold": 6115,
      "ĠHT": 6116,
      "Ġflavors": 6117,
      "Ġbasis": 6118,
      "PA": 6119,
      "spec": 6120,
      "Ġacknowledging": 6121,
      "Ġrecords": 6122,
      "Ġresearcher": 6123,
      "Ġprobabilities": 6124,
      "Ġcrypt": 6125,
      "Ġunp": 6126,
      "Ġrelying": 6127,
      "Ġcalculations": 6128,
      "Ġhit": 6129,
      "then": 6130,
      "phi": 6131,
      "Ġsimplifies": 6132,
      "Ġpalindrome": 6133,
      "ĠGod": 6134,
      "iform": 6135,
      "Ġimpression": 6136,
      "eric": 6137,
      "error": 6138,
      "Ġunfold": 6139,
      "Ġoutline": 6140,
      "Ġparticipate": 6141,
      "Ġforced": 6142,
      "code": 6143,
      "Ġescape": 6144,
      "Ġinternet": 6145,
      "Ġanswers": 6146,
      "pson": 6147,
      "Are": 6148,
      "aligned": 6149,
      "Ġheld": 6150,
      "ES": 6151,
      "Ġpul": 6152,
      "Ġmur": 6153,
      "stat": 6154,
      "Ġemergency": 6155,
      "Ġforget": 6156,
      "Ġperformed": 6157,
      "Ġemotion": 6158,
      "Ġgalax": 6159,
      "Be": 6160,
      "Ġjustify": 6161,
      "Ġstunning": 6162,
      "mathbb": 6163,
      "Ġranges": 6164,
      "Ġcomposition": 6165,
      "ET": 6166,
      "Ġdiscussed": 6167,
      "Ġspect": 6168,
      "Ġyields": 6169,
      "aming": 6170,
      "icians": 6171,
      "Ġpermut": 6172,
      "Ġfiction": 6173,
      "ulating": 6174,
      "Ġcoast": 6175,
      "Ġic": 6176,
      "Ġ{'": 6177,
      "ĠString": 6178,
      "Pr": 6179,
      "rial": 6180,
      "ĠPart": 6181,
      "Ġintegrate": 6182,
      "ĠEl": 6183,
      "andard": 6184,
      "Ġevolution": 6185,
      "Ġstret": 6186,
      "ruits": 6187,
      "relation": 6188,
      "ĠIntern": 6189,
      "Ġmechanisms": 6190,
      "Ġvectors": 6191,
      "Ġnested": 6192,
      "unic": 6193,
      "Ġpainting": 6194,
      "Ġstanding": 6195,
      "Ġstreets": 6196,
      "Ġagg": 6197,
      "Ġassuming": 6198,
      "que": 6199,
      "Ġpreserve": 6200,
      "Ġcalculus": 6201,
      "Ġlasting": 6202,
      "Ċĉĉĉĉ": 6203,
      "Ġlogarithm": 6204,
      "Ġhorizon": 6205,
      "Ġdiagn": 6206,
      "Ġrewards": 6207,
      "Ġadvertising": 6208,
      "Ġmagnitude": 6209,
      "Ġtech": 6210,
      "essage": 6211,
      "####": 6212,
      "=\\": 6213,
      "quent": 6214,
      "ĠAcc": 6215,
      "Ġcomprom": 6216,
      "Ġastr": 6217,
      "la": 6218,
      "Ġfaces": 6219,
      "Ġdrives": 6220,
      "Ġestimates": 6221,
      "ĠSouth": 6222,
      "taking": 6223,
      "Ġsegment": 6224,
      "Ġadminist": 6225,
      "ĠTheir": 6226,
      "Ġeventually": 6227,
      "eq": 6228,
      "Ġcoun": 6229,
      "Ġresolve": 6230,
      "////": 6231,
      "Ġpeak": 6232,
      "IS": 6233,
      "Ġcompute": 6234,
      "Ġsession": 6235,
      "Ġdomin": 6236,
      "Ġwaves": 6237,
      "Ġinstructions": 6238,
      "gl": 6239,
      "ossible": 6240,
      "dat": 6241,
      "inction": 6242,
      "leading": 6243,
      "Ġstead": 6244,
      "Ġprioritizing": 6245,
      "Ġenum": 6246,
      "Ġinvalid": 6247,
      "ondon": 6248,
      "ĠDep": 6249,
      "Ġmel": 6250,
      "ribe": 6251,
      "Ġcup": 6252,
      "Ġeth": 6253,
      "see": 6254,
      "ĠSmith": 6255,
      "Ġsyntax": 6256,
      "Ġshel": 6257,
      "Ġtells": 6258,
      "Ġproposal": 6259,
      "().": 6260,
      "CO": 6261,
      "Count": 6262,
      "Ġopinions": 6263,
      "semb": 6264,
      "Ġplayed": 6265,
      "Ġnetworks": 6266,
      "ĠEucl": 6267,
      "Ġmeasured": 6268,
      "amm": 6269,
      "Ġstyles": 6270,
      "Ġrecognition": 6271,
      "icks": 6272,
      "Ġsettings": 6273,
      "Ġsong": 6274,
      "Ġtends": 6275,
      "Ġselling": 6276,
      "Ġidentified": 6277,
      "Ġreminder": 6278,
      "Ġduplicates": 6279,
      "Ġskilled": 6280,
      "Ġdivisor": 6281,
      "tex": 6282,
      "ervice": 6283,
      "iam": 6284,
      "Ġrolling": 6285,
      "Ġgenerating": 6286,
      "Ġwriters": 6287,
      "Ġdry": 6288,
      "Ġcultiv": 6289,
      "Ġbrainstorm": 6290,
      "Ġshopping": 6291,
      "AL": 6292,
      "Ġmetal": 6293,
      "ĨĴ": 6294,
      "ĠMar": 6295,
      "Ġblend": 6296,
      "Ġfewer": 6297,
      "Ġsymmetry": 6298,
      "Ġneutral": 6299,
      "Ġvalidate": 6300,
      "eness": 6301,
      "Ġsupported": 6302,
      "Ġcaught": 6303,
      "endence": 6304,
      "Ġintense": 6305,
      "Ġopposite": 6306,
      "Ġhair": 6307,
      "late": 6308,
      "Ġconcision": 6309,
      "uge": 6310,
      "iers": 6311,
      "ĠRemember": 6312,
      "Ġidi": 6313,
      "keys": 6314,
      "ĠEnsure": 6315,
      "sin": 6316,
      "Ġinfer": 6317,
      "Looking": 6318,
      "Ġdelivery": 6319,
      "Ġwear": 6320,
      "Ġlowest": 6321,
      "iance": 6322,
      "Ġapps": 6323,
      "Ġdemonstrates": 6324,
      "Ġsearching": 6325,
      "ãģ": 6326,
      "Ġinvesting": 6327,
      "lin": 6328,
      "Ġinspiration": 6329,
      "Ġdim": 6330,
      "Ġreflection": 6331,
      "uis": 6332,
      "Ġcandidate": 6333,
      "Ġcorner": 6334,
      "Ġenjoyable": 6335,
      "ĠEd": 6336,
      "-\\": 6337,
      "iant": 6338,
      "Ġcultures": 6339,
      "Ġcancer": 6340,
      "Ġemphasis": 6341,
      "Ġachieving": 6342,
      ":\",": 6343,
      "uce": 6344,
      "Ġsac": 6345,
      "idean": 6346,
      "Ġrephrase": 6347,
      "Ġlux": 6348,
      "sim": 6349,
      "formation": 6350,
      "cons": 6351,
      "ĠBritish": 6352,
      "Ġmentors": 6353,
      "Ġrank": 6354,
      "ĠMichael": 6355,
      "Ġreact": 6356,
      "Ġperce": 6357,
      "heses": 6358,
      "mitted": 6359,
      "Ġtailored": 6360,
      "Ġartificial": 6361,
      "ablish": 6362,
      "Ġten": 6363,
      "Ġrevealing": 6364,
      "ricult": 6365,
      "Ġamounts": 6366,
      "Ġeco": 6367,
      "ascript": 6368,
      "Ġworkload": 6369,
      "Inc": 6370,
      "plete": 6371,
      "Ġecosystems": 6372,
      "Ġhelped": 6373,
      "Ġprotection": 6374,
      "Ġconsecut": 6375,
      "Ġmale": 6376,
      "Ġrestaurants": 6377,
      "Through": 6378,
      "Ġcorpor": 6379,
      "Ġremark": 6380,
      "RL": 6381,
      "Ġunlike": 6382,
      "Ġmeetings": 6383,
      "uctive": 6384,
      "ĠDef": 6385,
      "eted": 6386,
      "uary": 6387,
      "Ġnotable": 6388,
      "xygen": 6389,
      "host": 6390,
      "Ġconvenient": 6391,
      "Ġboy": 6392,
      "Ġtack": 6393,
      "nes": 6394,
      "mark": 6395,
      "idget": 6396,
      "Ġperp": 6397,
      "Ġarrangements": 6398,
      "hern": 6399,
      "Ġarchitecture": 6400,
      "Ġcontexts": 6401,
      "ĠAct": 6402,
      "Ġdefining": 6403,
      "ĠâĪ«": 6404,
      "pm": 6405,
      "Ġcoordinates": 6406,
      "Ġnational": 6407,
      "ĠBob": 6408,
      "heit": 6409,
      "Ġseam": 6410,
      "current": 6411,
      "ĠMain": 6412,
      "Ġli": 6413,
      "txt": 6414,
      "pring": 6415,
      "tem": 6416,
      "Ġtaste": 6417,
      "Ġbrought": 6418,
      "rier": 6419,
      "ĠPark": 6420,
      "ĠNorth": 6421,
      "Ġparallel": 6422,
      "Ġexceed": 6423,
      "Frame": 6424,
      "ĠWar": 6425,
      "Ġhomes": 6426,
      "dec": 6427,
      "Ġseparated": 6428,
      "Ġequipped": 6429,
      "ĠMars": 6430,
      "state": 6431,
      "ahren": 6432,
      "Ġmultiples": 6433,
      "Ġoptimal": 6434,
      "ishing": 6435,
      "Ġcong": 6436,
      "Ġglow": 6437,
      "Ġcontinued": 6438,
      "pop": 6439,
      "Ġpollution": 6440,
      "uler": 6441,
      "ĠJames": 6442,
      "uming": 6443,
      "Ġpassing": 6444,
      "ahrenheit": 6445,
      "Ġhesit": 6446,
      "Ġcaptiv": 6447,
      "zing": 6448,
      "Ġgoods": 6449,
      "]`": 6450,
      "ulated": 6451,
      "ĠRoman": 6452,
      "url": 6453,
      "Ġmyth": 6454,
      "Ġpal": 6455,
      "Ġsand": 6456,
      "Ġdescribing": 6457,
      "box": 6458,
      "Se": 6459,
      "Ġguest": 6460,
      "duplic": 6461,
      "ĠTrans": 6462,
      "Ġopinion": 6463,
      "px": 6464,
      "ĠRegular": 6465,
      "Ġdeadlines": 6466,
      "Ġkill": 6467,
      "Ġrectangle": 6468,
      "Ġgar": 6469,
      "Per": 6470,
      "Ġanalyst": 6471,
      "Ġsuccessfully": 6472,
      "Ġfib": 6473,
      "Ġlever": 6474,
      "Ġsupervis": 6475,
      "aust": 6476,
      "Ġplaceholders": 6477,
      "ĠLondon": 6478,
      "Ġappropriate": 6479,
      "Ġimpossible": 6480,
      "Ġcrafting": 6481,
      "rote": 6482,
      "Ġdocuments": 6483,
      "Ġwis": 6484,
      "Ġgeneration": 6485,
      "javascript": 6486,
      "odies": 6487,
      "Ġregulations": 6488,
      "Key": 6489,
      "Ġenthusiasm": 6490,
      "Ġintroducing": 6491,
      "itor": 6492,
      "Ġembra": 6493,
      "Ġattending": 6494,
      "Ġownership": 6495,
      "Ġpretty": 6496,
      "Ġreduces": 6497,
      "html": 6498,
      "Ġinsert": 6499,
      "run": 6500,
      "rip": 6501,
      "Ġknowing": 6502,
      "Ġphenomenon": 6503,
      "}^{": 6504,
      "Ġsmile": 6505,
      "urch": 6506,
      "Ġconversion": 6507,
      "Ġactively": 6508,
      "Ġrelation": 6509,
      "AB": 6510,
      "func": 6511,
      "Ġmilit": 6512,
      "nswer": 6513,
      "Ġsen": 6514,
      "Ġvideos": 6515,
      "onomy": 6516,
      "Ġconsecutive": 6517,
      "Ġpit": 6518,
      "Ġeat": 6519,
      "Ġorganized": 6520,
      "dy": 6521,
      "Ġitiner": 6522,
      "Ġpayment": 6523,
      "mp": 6524,
      "čĊ": 6525,
      "abet": 6526,
      "Ġwine": 6527,
      "Ġwall": 6528,
      "Ġgrammatical": 6529,
      "ql": 6530,
      "ĠID": 6531,
      "enty": 6532,
      "zero": 6533,
      "opy": 6534,
      "Ġleaders": 6535,
      "Ġsavings": 6536,
      "ĠFocus": 6537,
      "Ġmoon": 6538,
      "Ġparticles": 6539,
      "ĠNode": 6540,
      "Ġpostscript": 6541,
      "Ġmeasurement": 6542,
      "ien": 6543,
      "stac": 6544,
      "Ġspeech": 6545,
      "Ġtrad": 6546,
      "object": 6547,
      "eger": 6548,
      "ĠReturns": 6549,
      "wide": 6550,
      "oad": 6551,
      "Ġcomments": 6552,
      "ĠNe": 6553,
      "Ġbrow": 6554,
      "Mod": 6555,
      "Ġorders": 6556,
      "Ġtails": 6557,
      "efficient": 6558,
      "Ġmeta": 6559,
      "Ġincent": 6560,
      "izer": 6561,
      "Ġegg": 6562,
      "Ġfol": 6563,
      "Ġdoors": 6564,
      "CE": 6565,
      "\\\\": 6566,
      "Ġgathering": 6567,
      "Ġmuseum": 6568,
      "Ġsubstantial": 6569,
      "Ġinfluenc": 6570,
      "Ġcreatures": 6571,
      "Ġoxygen": 6572,
      "Ġhash": 6573,
      "target": 6574,
      "Ġnegot": 6575,
      "lder": 6576,
      "Ġheavily": 6577,
      "estion": 6578,
      "Ġrecall": 6579,
      "Ġhappened": 6580,
      "front": 6581,
      "Ġurgency": 6582,
      "Ext": 6583,
      "ĠProvide": 6584,
      "names": 6585,
      "Ġrandomly": 6586,
      "Ġevolve": 6587,
      "Ġcul": 6588,
      "Ġconcrete": 6589,
      "Ġelev": 6590,
      "Ġmoderate": 6591,
      "Ġoverwhelmed": 6592,
      "Ġscored": 6593,
      "Ðµ": 6594,
      "Ġ((": 6595,
      "Ġdispl": 6596,
      "Ġimmediate": 6597,
      "Ġoccup": 6598,
      "Ġaf": 6599,
      "Ġvoc": 6600,
      "Ġmaps": 6601,
      "peration": 6602,
      "Ġfing": 6603,
      "Ġformation": 6604,
      "Ġprotocol": 6605,
      "ffer": 6606,
      "matic": 6607,
      "ĠAb": 6608,
      "Ġeating": 6609,
      "Ġnutri": 6610,
      "Ġthrive": 6611,
      "span": 6612,
      "org": 6613,
      "Ġstone": 6614,
      "Ġreports": 6615,
      "Ġmeant": 6616,
      "Ġband": 6617,
      "Number": 6618,
      "Ġtherefore": 6619,
      "luding": 6620,
      "Ġseed": 6621,
      "ĠUser": 6622,
      "Ġdescriptions": 6623,
      "Ġfluctuations": 6624,
      "Ġproud": 6625,
      "Ġlessons": 6626,
      "erc": 6627,
      "Ġwitness": 6628,
      "Ġtelling": 6629,
      "ducation": 6630,
      "Ġconsists": 6631,
      "Ġencounter": 6632,
      "Ġtight": 6633,
      "ĠAB": 6634,
      "Ġjournal": 6635,
      "ometimes": 6636,
      "Ġattacks": 6637,
      "alysis": 6638,
      "Ġsunlight": 6639,
      "Ġseamless": 6640,
      "Ġdescribes": 6641,
      "Ġmachines": 6642,
      "Ġnums": 6643,
      "orous": 6644,
      "Ġcharge": 6645,
      "Ġproduced": 6646,
      "Ġinclusive": 6647,
      "Ġtransformations": 6648,
      "Ġobstac": 6649,
      "onnect": 6650,
      "Ġhiring": 6651,
      "Ġproposed": 6652,
      "ĠThompson": 6653,
      "ingly": 6654,
      "Ġstrict": 6655,
      "Ġjoint": 6656,
      "phone": 6657,
      "Ġattractions": 6658,
      "stablish": 6659,
      "gypt": 6660,
      "Ġeveryday": 6661,
      "Ġdeadline": 6662,
      "Ġconsole": 6663,
      "Ġfunctional": 6664,
      "ission": 6665,
      "ĠMin": 6666,
      "ĠĠĠĠĠĠĠĠĠĠĠĠĠĠĠĠĠĠĠĠĠĠĠĠĠĠĠĠĠĠĠĠ": 6667,
      "}$$": 6668,
      "rew": 6669,
      "PS": 6670,
      "Ġpassions": 6671,
      "Ġpreferred": 6672,
      "Ġboss": 6673,
      "Ġmatters": 6674,
      "Ġstored": 6675,
      "Ġmodular": 6676,
      "println": 6677,
      "Ġrelate": 6678,
      "Ġimagine": 6679,
      "Ġwider": 6680,
      "Ġdistingu": 6681,
      "rain": 6682,
      "rolling": 6683,
      "Ġbusy": 6684,
      "ĠDavid": 6685,
      "Ġpopulations": 6686,
      "Ġexceptional": 6687,
      "Ġanswering": 6688,
      "ĠAh": 6689,
      "Ġmisleading": 6690,
      "rict": 6691,
      "Ġflawed": 6692,
      "omatic": 6693,
      "Ġasc": 6694,
      "rons": 6695,
      "Ġvel": 6696,
      "Ġanalytics": 6697,
      "Ġpaid": 6698,
      "AD": 6699,
      "Ġlock": 6700,
      "Ġstim": 6701,
      "Ġgenetic": 6702,
      "ube": 6703,
      "Ġfitness": 6704,
      "Ġthreshold": 6705,
      "rich": 6706,
      "earson": 6707,
      "ĠSQL": 6708,
      "Ġprocedures": 6709,
      "Ġvent": 6710,
      "Ġeigen": 6711,
      "Ġattributes": 6712,
      "Ġdisrupt": 6713,
      "roph": 6714,
      "Ġune": 6715,
      "ĠAlternatively": 6716,
      "Ġcris": 6717,
      "Ġpurs": 6718,
      "process": 6719,
      "Ġthick": 6720,
      "Ġexercises": 6721,
      "ĠDoes": 6722,
      "but": 6723,
      "Ġcontrolled": 6724,
      "Ġ||": 6725,
      "unk": 6726,
      "Ġdistinction": 6727,
      "Ġanom": 6728,
      "Ġcampaigns": 6729,
      "ĠEuropean": 6730,
      "Dr": 6731,
      "Ġlst": 6732,
      "Ġretrie": 6733,
      "Ġaccounts": 6734,
      "Ġvar": 6735,
      "Ġpurchasing": 6736,
      "Ġportion": 6737,
      "Ġunw": 6738,
      "hello": 6739,
      "Ġmetric": 6740,
      "Ġmassive": 6741,
      "Ġcas": 6742,
      "except": 6743,
      "Ġgrid": 6744,
      "ician": 6745,
      "theta": 6746,
      "Ġexpensive": 6747,
      "ĠFurthermore": 6748,
      "iable": 6749,
      "Ġdarkness": 6750,
      "Ġmomentum": 6751,
      "_\\": 6752,
      "Ġrequests": 6753,
      "Ġmilest": 6754,
      "ĠAust": 6755,
      "ait": 6756,
      "Ġchannel": 6757,
      "ĠAg": 6758,
      "ĠTime": 6759,
      "Ġinches": 6760,
      "Ġforg": 6761,
      "iences": 6762,
      ")}": 6763,
      "Ġresolution": 6764,
      "ĠFace": 6765,
      "Ġvertex": 6766,
      "Ġoccurred": 6767,
      "Ġtuples": 6768,
      "Ġfemale": 6769,
      "amin": 6770,
      "ulum": 6771,
      "Ġfalls": 6772,
      "Ġsatisfy": 6773,
      "Ġcomma": 6774,
      "Get": 6775,
      "float": 6776,
      "Ġserving": 6777,
      "aren": 6778,
      "width": 6779,
      "Ġ[\"": 6780,
      "Ġrepeat": 6781,
      "Ġshowcases": 6782,
      "vious": 6783,
      "Ġlights": 6784,
      "Ġriver": 6785,
      "Ġgaps": 6786,
      "tu": 6787,
      "Ġwasn": 6788,
      "Ġmultiplying": 6789,
      "umble": 6790,
      "ounce": 6791,
      "Ġhousing": 6792,
      "Ġscent": 6793,
      "Ġdiseases": 6794,
      "Ġalter": 6795,
      "Ġitinerary": 6796,
      "Ġgod": 6797,
      "element": 6798,
      "Ġarm": 6799,
      "Ġsequences": 6800,
      "real": 6801,
      "`)": 6802,
      "Ġthrilled": 6803,
      "Ġtrouble": 6804,
      "abul": 6805,
      "vari": 6806,
      "Ġbrother": 6807,
      "ĠFin": 6808,
      "Ġreb": 6809,
      "ĠDespite": 6810,
      "ĠÐ": 6811,
      "Ġherself": 6812,
      "Ġyounger": 6813,
      "ĠSimilarly": 6814,
      "Ġpreparing": 6815,
      "Ġcow": 6816,
      "Array": 6817,
      "Ġtables": 6818,
      "Ġinspired": 6819,
      "Ġadvantages": 6820,
      "Ġshapes": 6821,
      "Ġthous": 6822,
      "Ġperfectly": 6823,
      "Ġruns": 6824,
      "ĠEgypt": 6825,
      "Ġwed": 6826,
      "ĠProduct": 6827,
      "search": 6828,
      "oe": 6829,
      "Ġpursue": 6830,
      "Ġcriteria": 6831,
      "Ġaxis": 6832,
      "Ġwildlife": 6833,
      "Ġshaping": 6834,
      "Ġsimpler": 6835,
      "Ġlayout": 6836,
      "Ġcharacteristic": 6837,
      "Ġchances": 6838,
      "Ġposts": 6839,
      "ama": 6840,
      "Ġdecided": 6841,
      "ipl": 6842,
      "Ġconverts": 6843,
      "Ġgolden": 6844,
      "ĠGen": 6845,
      "Ġnice": 6846,
      "Ġlighting": 6847,
      "Ġdinner": 6848,
      "Ġunders": 6849,
      "mathbf": 6850,
      "Ġtriangles": 6851,
      "Ġedited": 6852,
      "Ġrephrasing": 6853,
      "craft": 6854,
      "Ġearn": 6855,
      "\"))": 6856,
      "Ġinspire": 6857,
      "Exception": 6858,
      "asts": 6859,
      "Ġthoughtful": 6860,
      "Ġflowers": 6861,
      "Ġoverview": 6862,
      "Ġclues": 6863,
      "lusion": 6864,
      "Ġtact": 6865,
      "pen": 6866,
      "Ġfashion": 6867,
      "ĠJoh": 6868,
      "comp": 6869,
      "Ġdatetime": 6870,
      "Ġflight": 6871,
      "common": 6872,
      "oved": 6873,
      "Ġbuildings": 6874,
      "Ġrights": 6875,
      "Ġplus": 6876,
      "Ġimper": 6877,
      "ĠJan": 6878,
      "Ġhi": 6879,
      "output": 6880,
      "ĠChe": 6881,
      "Ġentertainment": 6882,
      "Ġimagination": 6883,
      "Ġturning": 6884,
      "Ġdance": 6885,
      "Ġaccommodations": 6886,
      "imp": 6887,
      "Ġholding": 6888,
      "Ġgenerations": 6889,
      "Ġdesk": 6890,
      "Ġburnout": 6891,
      "dx": 6892,
      "Ġkeeps": 6893,
      "Ġknows": 6894,
      "Ġera": 6895,
      "Ġreasonable": 6896,
      "čĊĠĠĠ": 6897,
      "Ġagricult": 6898,
      "Ġdiffer": 6899,
      "stood": 6900,
      "OT": 6901,
      "Ġfantasy": 6902,
      "Ġamazing": 6903,
      "Text": 6904,
      "Invalid": 6905,
      "Ġindices": 6906,
      "Ġsimplified": 6907,
      "CH": 6908,
      "Ġfocuses": 6909,
      "imeter": 6910,
      "Te": 6911,
      "Ġstick": 6912,
      "Ġsports": 6913,
      "Ġdiversity": 6914,
      "low": 6915,
      "Ġplaced": 6916,
      "aped": 6917,
      "plot": 6918,
      "Ġhero": 6919,
      "Value": 6920,
      "Ġtherapy": 6921,
      "Ġshadows": 6922,
      "Ġwelcome": 6923,
      "ĠVis": 6924,
      "Ġoccurring": 6925,
      "Ġserver": 6926,
      "AA": 6927,
      "Ġcenturies": 6928,
      "Ġsyn": 6929,
      "Ġkid": 6930,
      "Ġappearance": 6931,
      "Ġelegant": 6932,
      "Ġutilize": 6933,
      "Ġcuis": 6934,
      "Ġgro": 6935,
      "ĠTom": 6936,
      "ĠPres": 6937,
      "Ġencouraging": 6938,
      "Moreover": 6939,
      "RI": 6940,
      "Ġinventory": 6941,
      "gu": 6942,
      "ĠGreen": 6943,
      "ĠJapanese": 6944,
      "color": 6945,
      "Ġappealing": 6946,
      "zy": 6947,
      "Ġhaven": 6948,
      "Ġpred": 6949,
      "Ġages": 6950,
      "Acc": 6951,
      "Ġprop": 6952,
      "Ġleverage": 6953,
      "abulary": 6954,
      "tered": 6955,
      "Ġproactive": 6956,
      "Ġwrapped": 6957,
      "Ġintroduced": 6958,
      "Ġreferr": 6959,
      "Ġnetworking": 6960,
      "icking": 6961,
      "comm": 6962,
      "Ġsurroundings": 6963,
      "Ġreflecting": 6964,
      "olic": 6965,
      "Ġphenomena": 6966,
      "Ġprimarily": 6967,
      "Ġbringing": 6968,
      "Ġasks": 6969,
      "ĠSpecifically": 6970,
      "plifying": 6971,
      "Ġexposure": 6972,
      "ĠSE": 6973,
      "celer": 6974,
      "Ġdedication": 6975,
      "Ġhex": 6976,
      "Ġshaped": 6977,
      "root": 6978,
      "ĠHar": 6979,
      "Ġextension": 6980,
      "faces": 6981,
      "Ġ`[": 6982,
      "She": 6983,
      "Ġrhythm": 6984,
      "Ġdispers": 6985,
      "Ġoccas": 6986,
      "Ġroute": 6987,
      "AM": 6988,
      "Ġrapidly": 6989,
      "sis": 6990,
      "ino": 6991,
      "fol": 6992,
      "Ġdust": 6993,
      "icious": 6994,
      "Ġgear": 6995,
      "Ġregist": 6996,
      "Ġsurprise": 6997,
      "Ġcleaning": 6998,
      "Ġrespectful": 6999,
      "Ġmir": 7000,
      "ĠEuclidean": 7001,
      "Ġsummar": 7002,
      "ether": 7003,
      "ĠGu": 7004,
      "draw": 7005,
      "Ġcitiz": 7006,
      "erts": 7007,
      "Ġdiver": 7008,
      "owels": 7009,
      "Ġcollaborating": 7010,
      "Ġdebt": 7011,
      "ĠState": 7012,
      "Ġreflects": 7013,
      "Ġexceptions": 7014,
      "Ġvalidation": 7015,
      "New": 7016,
      "Ġtraveling": 7017,
      "Ġyes": 7018,
      "Ġrevolution": 7019,
      "Ġhearing": 7020,
      "cket": 7021,
      "Ġgenerator": 7022,
      "ĠAfric": 7023,
      "Ġconverted": 7024,
      "ĠFacebook": 7025,
      "Ġinvestigate": 7026,
      "Ġsteady": 7027,
      "oper": 7028,
      "Ġmilitary": 7029,
      "Ġcontem": 7030,
      "Ġintersect": 7031,
      "Ġfacts": 7032,
      "Ġpand": 7033,
      "Ġrewarding": 7034,
      "Ġproductive": 7035,
      "arian": 7036,
      "ĠCould": 7037,
      "Ġrecursion": 7038,
      "Ġtrial": 7039,
      "Ġhob": 7040,
      "Ġbread": 7041,
      "Ġintegrating": 7042,
      "ĠSam": 7043,
      "ĠLinked": 7044,
      "Ġlongest": 7045,
      "Ġderived": 7046,
      "ĠMaybe": 7047,
      "chol": 7048,
      "aper": 7049,
      "Ġride": 7050,
      "ĠEast": 7051,
      "akers": 7052,
      "valuate": 7053,
      "Ġradiation": 7054,
      "ĠKeep": 7055,
      "Ġquot": 7056,
      "Ġalthough": 7057,
      "Ġcompact": 7058,
      "Ġreviewing": 7059,
      "Ġnearly": 7060,
      "Ġoptimization": 7061,
      "Ġdownt": 7062,
      "Ġcausation": 7063,
      "aze": 7064,
      "verb": 7065,
      "Ġoperating": 7066,
      "Ġsubs": 7067,
      "Ġcategor": 7068,
      "itches": 7069,
      "Ġarticles": 7070,
      "Ġdesigns": 7071,
      "post": 7072,
      "Ġnervous": 7073,
      "ĠKing": 7074,
      "Ġreveals": 7075,
      "Inter": 7076,
      "Ġsphere": 7077,
      "Ġmanif": 7078,
      "Ġtea": 7079,
      "Ġduration": 7080,
      "Ġconstantly": 7081,
      "Ġsugar": 7082,
      "pack": 7083,
      "rior": 7084,
      "Ġwrote": 7085,
      "Ġuniform": 7086,
      "Ġprogression": 7087,
      "Ġretail": 7088,
      "Ġsupplies": 7089,
      "Ġassigned": 7090,
      "Ġextensive": 7091,
      "hips": 7092,
      "Ġaid": 7093,
      "Ġos": 7094,
      "beta": 7095,
      "osit": 7096,
      "Ġaffecting": 7097,
      "ographics": 7098,
      "Ġadj": 7099,
      "aware": 7100,
      "Ġbroken": 7101,
      "option": 7102,
      "ĠGreat": 7103,
      "Ġreactions": 7104,
      "Ġtailor": 7105,
      "Ġassessment": 7106,
      "ciation": 7107,
      "Ġattendees": 7108,
      "Ġdisplays": 7109,
      "Ġinqu": 7110,
      "Ġgap": 7111,
      "Ġapproachable": 7112,
      "Ġmarkets": 7113,
      "Ġappreciation": 7114,
      "ĠBlack": 7115,
      "ĠSw": 7116,
      "Ġeliminate": 7117,
      "Ġvertices": 7118,
      "Ġanalog": 7119,
      "Ġmerg": 7120,
      "Ġobserving": 7121,
      "Ġprofile": 7122,
      "Ġcutting": 7123,
      "Ġargs": 7124,
      "File": 7125,
      "Ġsoph": 7126,
      "Ġaftern": 7127,
      "Ġblocks": 7128,
      "%,": 7129,
      "Ġconditional": 7130,
      "Ġapparent": 7131,
      "Ġ},": 7132,
      "]]": 7133,
      "Ġwisdom": 7134,
      "night": 7135,
      "Ġ&&": 7136,
      "return": 7137,
      "Ġinterface": 7138,
      "Ġgrows": 7139,
      "Ġnodes": 7140,
      "Ġiteration": 7141,
      "Ġdetermin": 7142,
      "Ġabsorb": 7143,
      "eath": 7144,
      "Ġgravity": 7145,
      "Ġsail": 7146,
      "Ġthus": 7147,
      "Ġlibraries": 7148,
      "Ġtransitions": 7149,
      "Ġsuspect": 7150,
      "ĠPerson": 7151,
      "endar": 7152,
      "Ġhole": 7153,
      "ĠPearson": 7154,
      "ĠIN": 7155,
      "ĠRob": 7156,
      "uesday": 7157,
      "Ġmagnetic": 7158,
      "palindrome": 7159,
      "Ġends": 7160,
      "Ġjustice": 7161,
      "Ġreass": 7162,
      "ĠBoth": 7163,
      "Ġplastic": 7164,
      "Ġcollective": 7165,
      "Ġboxes": 7166,
      "Ġpromotions": 7167,
      "fast": 7168,
      "ollow": 7169,
      "Ġreversed": 7170,
      "Ad": 7171,
      "ĠBre": 7172,
      "DA": 7173,
      "Ġtransitional": 7174,
      "umin": 7175,
      "ilon": 7176,
      "base": 7177,
      "FF": 7178,
      "apes": 7179,
      "ĠMart": 7180,
      "high": 7181,
      "Ġwave": 7182,
      "ĠIns": 7183,
      "Ġmovements": 7184,
      "through": 7185,
      "Ġcomment": 7186,
      "ĠPM": 7187,
      "Ġ>=": 7188,
      "Ġprivile": 7189,
      "Ġ...,": 7190,
      "Ġreserv": 7191,
      "Ġsubjects": 7192,
      "Ġdrop": 7193,
      "Ġpartial": 7194,
      "Ġvocabulary": 7195,
      "Ġbattle": 7196,
      "Ġepis": 7197,
      "Ġease": 7198,
      "Ġcaut": 7199,
      "Ġrecommended": 7200,
      "gers": 7201,
      "Ġoccurrences": 7202,
      "Ġcomplic": 7203,
      "ĠEven": 7204,
      "Ġestimated": 7205,
      "Ġclothing": 7206,
      "Ġbeneath": 7207,
      "Ġgenerates": 7208,
      "Ġran": 7209,
      "ĠFind": 7210,
      "View": 7211,
      "uses": 7212,
      "Node": 7213,
      "><": 7214,
      "Ġtraum": 7215,
      "normal": 7216,
      "ĠAnaly": 7217,
      "Ġsnipp": 7218,
      "ĠAmerica": 7219,
      "Ġcoding": 7220,
      "Ġratings": 7221,
      "Ġwondering": 7222,
      "Before": 7223,
      "Ġdemands": 7224,
      "plate": 7225,
      "Ġpassword": 7226,
      "andon": 7227,
      "press": 7228,
      "ulti": 7229,
      "Cal": 7230,
      "Ġexplained": 7231,
      "uling": 7232,
      "abil": 7233,
      "etermine": 7234,
      "match": 7235,
      "imensions": 7236,
      "Ġextend": 7237,
      "Ġsister": 7238,
      "Ġsatisfies": 7239,
      "Ġclimbing": 7240,
      "ĊĠĠĠĠĠĠĠĠ": 7241,
      "mental": 7242,
      "Ġpartnerships": 7243,
      "Ġcurric": 7244,
      "attr": 7245,
      "Ġdiagon": 7246,
      "}.": 7247,
      "Ġreleased": 7248,
      "Ġpersist": 7249,
      "cpp": 7250,
      "Ġsight": 7251,
      "ocking": 7252,
      "Ġinfluencing": 7253,
      "Ġgave": 7254,
      "Ġtransparent": 7255,
      "Ġlic": 7256,
      "**,": 7257,
      "Ġmultiplication": 7258,
      "ĠII": 7259,
      "zon": 7260,
      "Ġiterative": 7261,
      "Ġsupervisor": 7262,
      "cher": 7263,
      "Me": 7264,
      "ran": 7265,
      "Ġcomplain": 7266,
      "Ġpiv": 7267,
      "erie": 7268,
      "Ġcautious": 7269,
      "Ġfoss": 7270,
      "balance": 7271,
      "ĠAug": 7272,
      "Ġsomewhat": 7273,
      "Ġincom": 7274,
      "Ġgirl": 7275,
      "Ġaddressed": 7276,
      "ĠMat": 7277,
      "ĠIts": 7278,
      "itors": 7279,
      "ĠAny": 7280,
      "Ġconfusion": 7281,
      "++)": 7282,
      "itivity": 7283,
      "Ġfert": 7284,
      "Ġsmoothly": 7285,
      "Ġsophistic": 7286,
      "Man": 7287,
      "ĠSometimes": 7288,
      "Ġapproxim": 7289,
      "Ġpython": 7290,
      "ĠDes": 7291,
      "Ġcounting": 7292,
      "Ġln": 7293,
      "Ġslowly": 7294,
      "Ġstuck": 7295,
      "Ġnuance": 7296,
      "Ġvisually": 7297,
      "Why": 7298,
      "product": 7299,
      "Ġaccommodate": 7300,
      "Ġcompl": 7301,
      "Ġdestinations": 7302,
      "band": 7303,
      "ĠðŁĮ": 7304,
      "Ġcamera": 7305,
      "ĠOtherwise": 7306,
      "Ġcourt": 7307,
      "bles": 7308,
      "Ġarbit": 7309,
      "Object": 7310,
      "hered": 7311,
      "Ġexhaust": 7312,
      "prene": 7313,
      "\"{": 7314,
      "viron": 7315,
      "Ġdice": 7316,
      "Ġinstances": 7317,
      "Ġfostering": 7318,
      "Ġ,": 7319,
      "fered": 7320,
      "Ġmortal": 7321,
      "Ġangular": 7322,
      "+\\": 7323,
      "orean": 7324,
      "inator": 7325,
      "Ġcompass": 7326,
      "Ġdepression": 7327,
      "Ġsy": 7328,
      "Ġstrike": 7329,
      "Sec": 7330,
      "ket": 7331,
      "Ġrealize": 7332,
      "Ġnutrit": 7333,
      "ria": 7334,
      "Ġmanufacturing": 7335,
      "Ġcouldn": 7336,
      "Ġsitting": 7337,
      "Ġformatting": 7338,
      "Ġredund": 7339,
      "Think": 7340,
      "Ġweighing": 7341,
      "ĠDis": 7342,
      "reprene": 7343,
      "Ġsto": 7344,
      "Ġshowcasing": 7345,
      "ugh": 7346,
      "istry": 7347,
      "Ġsurvival": 7348,
      "dden": 7349,
      "Ġdelight": 7350,
      "ĠWh": 7351,
      "ords": 7352,
      "ĠEmphas": 7353,
      "erb": 7354,
      "total": 7355,
      "Ġprefix": 7356,
      ")**:": 7357,
      "nel": 7358,
      "Ġdetermination": 7359,
      "Ġcha": 7360,
      "ĠDNA": 7361,
      "Ġexpressing": 7362,
      "apple": 7363,
      "ĠFrance": 7364,
      "Ġcab": 7365,
      "Ġreturning": 7366,
      "Ġcalling": 7367,
      "OU": 7368,
      "mes": 7369,
      "Ġcove": 7370,
      "Ġmeals": 7371,
      "Ġinstruction": 7372,
      "Ġfellow": 7373,
      "Ġacid": 7374,
      "Ġconscious": 7375,
      "Ġprison": 7376,
      "Ġcorrected": 7377,
      "itage": 7378,
      "ĠFl": 7379,
      "Ġstrengthen": 7380,
      "Ġfinance": 7381,
      "Ġpossibly": 7382,
      "Ġminimal": 7383,
      "Ġembracing": 7384,
      "Ġlose": 7385,
      "Ġresiduals": 7386,
      "net": 7387,
      "Ċĉĉĉ": 7388,
      "ixt": 7389,
      "Ġnod": 7390,
      "Ġboolean": 7391,
      "Ġsites": 7392,
      "Ġfoods": 7393,
      "Ġmanaged": 7394,
      "ppose": 7395,
      "ipe": 7396,
      "Ġbinomial": 7397,
      "Ġconvergence": 7398,
      "Ġsymmetric": 7399,
      "has": 7400,
      "<<": 7401,
      "Ġdelve": 7402,
      "Ġclock": 7403,
      "since": 7404,
      "Ġadvancement": 7405,
      "estic": 7406,
      "Ġinterviews": 7407,
      "oking": 7408,
      "Ġspeaker": 7409,
      "ĠRome": 7410,
      "Ġcuisine": 7411,
      "Ġinconsistencies": 7412,
      "sigma": 7413,
      "ĠName": 7414,
      "Fe": 7415,
      "Ġfulfilling": 7416,
      "Ġinformative": 7417,
      "Ġpreparation": 7418,
      "Ġtor": 7419,
      "Ġworried": 7420,
      "Ġuniversity": 7421,
      "Ġdoctor": 7422,
      "Ġdiscipl": 7423,
      "Ġfestival": 7424,
      "Ġcryst": 7425,
      "Ġdenote": 7426,
      "Ġdelay": 7427,
      "Ġoffered": 7428,
      "Ġascending": 7429,
      "Ġstated": 7430,
      "https": 7431,
      "Ġthank": 7432,
      "Ġvegetables": 7433,
      "Ġsetup": 7434,
      "Ġrefining": 7435,
      "aul": 7436,
      "Ġcongru": 7437,
      "Î¸": 7438,
      "kyo": 7439,
      "Ġmedium": 7440,
      "Ġconsiderations": 7441,
      "Ġbridge": 7442,
      "ync": 7443,
      "Despite": 7444,
      "Ġluck": 7445,
      "Ġsudden": 7446,
      "bi": 7447,
      "Inst": 7448,
      "Ġsubsequent": 7449,
      "Ġkeyword": 7450,
      "Ġallocate": 7451,
      "Des": 7452,
      "Ġcurious": 7453,
      "Ġinherent": 7454,
      "nson": 7455,
      "Rec": 7456,
      "erge": 7457,
      "ocity": 7458,
      "parametric": 7459,
      "ĠGroup": 7460,
      "achel": 7461,
      "Ġmanufacture": 7462,
      "dir": 7463,
      "title": 7464,
      "Ġhosting": 7465,
      "marks": 7466,
      "Ġdistances": 7467,
      "Ġdriver": 7468,
      "Ġtag": 7469,
      "Ġachievements": 7470,
      "Ġhumanity": 7471,
      "Ġversus": 7472,
      "ĠTH": 7473,
      "Ġmapping": 7474,
      "Ġinterior": 7475,
      "ashing": 7476,
      "Throughout": 7477,
      "artment": 7478,
      "Ġouter": 7479,
      "Ġwebsites": 7480,
      "Ġadvancements": 7481,
      "aceted": 7482,
      "Ġsociet": 7483,
      "Ġvacation": 7484,
      "xic": 7485,
      "Ġresistance": 7486,
      "Ġwearing": 7487,
      "Ġfunds": 7488,
      "ĠWhich": 7489,
      "Ġhub": 7490,
      "^{-": 7491,
      "Read": 7492,
      "Ġexperiments": 7493,
      "Ġexecution": 7494,
      "Ġlayers": 7495,
      "ĠĠĠĠĠĠĠĠĠĠĠ": 7496,
      "Ġtit": 7497,
      "Ġconsumers": 7498,
      "Ġcompens": 7499,
      "Ġenvision": 7500,
      "Index": 7501,
      "br": 7502,
      "ĠTry": 7503,
      "Ġadjusting": 7504,
      "Ġundersc": 7505,
      "Ġban": 7506,
      "pread": 7507,
      "udent": 7508,
      "Ġremarkable": 7509,
      "Ġliterature": 7510,
      "Ġprospect": 7511,
      "reating": 7512,
      "Ġcro": 7513,
      "apter": 7514,
      "body": 7515,
      "ĠâĨĴ": 7516,
      "Ġlogistics": 7517,
      "ĠSchool": 7518,
      "Ġhyper": 7519,
      "Ġgained": 7520,
      "Ġfle": 7521,
      "Ġdining": 7522,
      "image": 7523,
      "agement": 7524,
      "Ġslic": 7525,
      "Ġemphasizes": 7526,
      "Ġarc": 7527,
      "Ġstages": 7528,
      "Ġminute": 7529,
      "Ġintegrated": 7530,
      "Ġmindfulness": 7531,
      "Ġpool": 7532,
      "Ġscr": 7533,
      "Ġdivisors": 7534,
      "bsolute": 7535,
      "Ġalive": 7536,
      "Ġjson": 7537,
      "abit": 7538,
      "ventional": 7539,
      "Ġarbitr": 7540,
      "Ġinstrument": 7541,
      "Ġspo": 7542,
      "Ġfigures": 7543,
      "worth": 7544,
      "Ġsale": 7545,
      "Ġcausal": 7546,
      "city": 7547,
      "Ġputting": 7548,
      "iture": 7549,
      "verages": 7550,
      "xx": 7551,
      "Ġcaf": 7552,
      "Ġclause": 7553,
      "Comp": 7554,
      "fe": 7555,
      "Ġdimensions": 7556,
      "Ġemphasizing": 7557,
      "istory": 7558,
      "Ġrevise": 7559,
      "Ġparties": 7560,
      "Thanks": 7561,
      "Considering": 7562,
      "Ġtrusted": 7563,
      "Ġdefinitely": 7564,
      "Ġinformal": 7565,
      "Ġworkshop": 7566,
      "Ġtall": 7567,
      "onds": 7568,
      "Ġlabels": 7569,
      "oded": 7570,
      "Ġwhispers": 7571,
      "Ġacceler": 7572,
      "Ġconducting": 7573,
      "rogen": 7574,
      "Ġcomputing": 7575,
      "Ġspecify": 7576,
      "Ġintriguing": 7577,
      "Ġhappening": 7578,
      "Ġagency": 7579,
      "Ġunderm": 7580,
      "OVA": 7581,
      "plan": 7582,
      "Ġgone": 7583,
      "Ġprimes": 7584,
      "Ġpasseng": 7585,
      "Ġfantastic": 7586,
      "Ġprotein": 7587,
      "stone": 7588,
      "Ġhus": 7589,
      "ĠGet": 7590,
      "ustomer": 7591,
      "Analy": 7592,
      "Ġasym": 7593,
      "Ġanomal": 7594,
      "Ġmoved": 7595,
      "alian": 7596,
      "Ġsatisfied": 7597,
      "aid": 7598,
      "aby": 7599,
      "gent": 7600,
      "istribut": 7601,
      "Ġconversational": 7602,
      "Ġresume": 7603,
      "seen": 7604,
      "lete": 7605,
      "Ġtense": 7606,
      "Ġtestament": 7607,
      "ĠFrid": 7608,
      "Ġdiscounts": 7609,
      "Ġtensor": 7610,
      "Ġunclear": 7611,
      "Ġthreads": 7612,
      "Ġafternoon": 7613,
      "Ġfinish": 7614,
      "Ġdrinks": 7615,
      "Ġunsure": 7616,
      "Ġborn": 7617,
      "Ġhier": 7618,
      "sl": 7619,
      "Ġinvestig": 7620,
      "MS": 7621,
      "Ġflip": 7622,
      "Ġfruit": 7623,
      "Ġedges": 7624,
      "Ġlean": 7625,
      "ĠAlice": 7626,
      "how": 7627,
      "apping": 7628,
      "ĠWhe": 7629,
      "Ġentreprene": 7630,
      "Ġaffordable": 7631,
      "quart": 7632,
      "scale": 7633,
      "ULL": 7634,
      "Ġfort": 7635,
      "style": 7636,
      "ĠMc": 7637,
      "Ġcosm": 7638,
      "versely": 7639,
      "Ġdeck": 7640,
      "Ġfly": 7641,
      "ĠEvery": 7642,
      "ĠThus": 7643,
      "Ġ\\\\": 7644,
      "Ġpredicted": 7645,
      "Ġvulnerable": 7646,
      "Ġcasual": 7647,
      "Ġclauses": 7648,
      "Ġsurrounded": 7649,
      "Ġfluid": 7650,
      "ĠTokyo": 7651,
      "($": 7652,
      "ifier": 7653,
      ",,": 7654,
      "Ġstartup": 7655,
      "xi": 7656,
      "Ġunderstood": 7657,
      "dev": 7658,
      "Ġfeat": 7659,
      "ĠScience": 7660,
      "Ġjump": 7661,
      "Ġbirds": 7662,
      "Ġvarying": 7663,
      "pire": 7664,
      "Ġhuge": 7665,
      "Ġabandon": 7666,
      "Ġarrays": 7667,
      "Ġcurriculum": 7668,
      "Ġtrials": 7669,
      "lie": 7670,
      "idespread": 7671,
      "ille": 7672,
      "lists": 7673,
      "Ġluxury": 7674,
      "Ġinfect": 7675,
      "kin": 7676,
      "even": 7677,
      "Sarah": 7678,
      "Ġorganize": 7679,
      "ounced": 7680,
      "ĠHave": 7681,
      "ĠGCD": 7682,
      "Ġextended": 7683,
      "Ġgradually": 7684,
      "Ġempower": 7685,
      "Ġvot": 7686,
      "acent": 7687,
      "Ġvend": 7688,
      "Ġindependence": 7689,
      "Ġpersuasive": 7690,
      "Ġliqu": 7691,
      "prov": 7692,
      "They": 7693,
      "Ġmetaph": 7694,
      "last": 7695,
      "Ġpanels": 7696,
      "Ġsuc": 7697,
      "Ġencourages": 7698,
      "Ġwaters": 7699,
      "ker": 7700,
      "}_{": 7701,
      "Ġvir": 7702,
      "Ġevoke": 7703,
      "Ġassociation": 7704,
      "Ġparabol": 7705,
      "Ġdogs": 7706,
      "else": 7707,
      "Ġresonate": 7708,
      "Ġfacilities": 7709,
      "Ġpercentile": 7710,
      "itter": 7711,
      "AS": 7712,
      "lar": 7713,
      "chant": 7714,
      "');": 7715,
      "Ġtemporary": 7716,
      "ĠPo": 7717,
      "ĠTuesday": 7718,
      "aj": 7719,
      "unting": 7720,
      "itational": 7721,
      "ptic": 7722,
      "hors": 7723,
      "Ġcapable": 7724,
      "Ġpermutations": 7725,
      "ĠNumber": 7726,
      "Ġpaying": 7727,
      "rho": 7728,
      "ĠJohnson": 7729,
      "ĠComb": 7730,
      "Ġautomatically": 7731,
      "Ġrecursively": 7732,
      "Ġtut": 7733,
      "Ġamen": 7734,
      "Ġspl": 7735,
      "Ġwinter": 7736,
      "Ġincident": 7737,
      "filename": 7738,
      "ĠAM": 7739,
      "ught": 7740,
      "Ġargue": 7741,
      "mean": 7742,
      "Ġunlikely": 7743,
      "anish": 7744,
      "Ġnormality": 7745,
      "atever": 7746,
      "Ġinstinct": 7747,
      "Ġdemographics": 7748,
      "AC": 7749,
      "ĠPeople": 7750,
      "Ġaside": 7751,
      "ĠĠĠĠĠĠĠĠĠ": 7752,
      "paring": 7753,
      "Ġshifts": 7754,
      "Ġobstacles": 7755,
      "orient": 7756,
      "Ġbot": 7757,
      "partial": 7758,
      "Ġdetection": 7759,
      "Ġsucceed": 7760,
      "Ġdaughter": 7761,
      "Ġthesis": 7762,
      "ĠWho": 7763,
      "Ġlad": 7764,
      "Ġmistake": 7765,
      "Ġgreenhouse": 7766,
      "Trans": 7767,
      "Ġmaximize": 7768,
      "push": 7769,
      "Ġentity": 7770,
      "Ġquantity": 7771,
      "ipal": 7772,
      "Ġhoping": 7773,
      "Both": 7774,
      "weight": 7775,
      "ĠDuring": 7776,
      "ĠURL": 7777,
      "Ġteach": 7778,
      "Ġowners": 7779,
      "Ġlived": 7780,
      "Ġbag": 7781,
      "Ġartistic": 7782,
      "ĠInternational": 7783,
      "Ġdut": 7784,
      "unique": 7785,
      "Ġchair": 7786,
      "ductive": 7787,
      "cules": 7788,
      "Ġinterpreting": 7789,
      "Ġsorting": 7790,
      "ĠInter": 7791,
      "Ġvs": 7792,
      "Def": 7793,
      "Ġpromotion": 7794,
      "Ġconsumer": 7795,
      "Ġpresents": 7796,
      "Ġrecovery": 7797,
      "orders": 7798,
      "ĠHealth": 7799,
      "Ġattempts": 7800,
      "Ġglad": 7801,
      "Ġreplacement": 7802,
      "Ġfees": 7803,
      "Ġparse": 7804,
      "Ġemployer": 7805,
      "Ġbiased": 7806,
      "compass": 7807,
      "essel": 7808,
      "Ġaccident": 7809,
      "></": 7810,
      "Ġrotation": 7811,
      "Ġaccum": 7812,
      "pril": 7813,
      "elsius": 7814,
      "Ġthreats": 7815,
      "ustain": 7816,
      "Ġdecreases": 7817,
      "Ġgau": 7818,
      "Ġmultipl": 7819,
      "Ġpartners": 7820,
      "Ġwedding": 7821,
      "Ġwouldn": 7822,
      "Ġartifacts": 7823,
      "Ident": 7824,
      "building": 7825,
      "fess": 7826,
      "Ġdebate": 7827,
      "ĠPlan": 7828,
      "Ġmanipulate": 7829,
      "Ġfunctionality": 7830,
      "Ġyog": 7831,
      "luded": 7832,
      "********": 7833,
      "Ġcollections": 7834,
      "Ġarts": 7835,
      "Ġsignature": 7836,
      "info": 7837,
      "Ġresonance": 7838,
      "Ġglance": 7839,
      "Ġfulfillment": 7840,
      "Ġpages": 7841,
      "Ġsupposed": 7842,
      "Ġtiny": 7843,
      "ubble": 7844,
      "Ġnavigating": 7845,
      "TE": 7846,
      "Ġbact": 7847,
      "OS": 7848,
      "pret": 7849,
      "aborate": 7850,
      "itable": 7851,
      "cil": 7852,
      "Ġdecom": 7853,
      "US": 7854,
      "Ġmuscle": 7855,
      "Ġtheories": 7856,
      "ĠAdded": 7857,
      "Ġton": 7858,
      "ĠÏĨ": 7859,
      "stituting": 7860,
      "ĠItalian": 7861,
      "Ġ\")": 7862,
      "Ġvenue": 7863,
      "ander": 7864,
      "Ġversions": 7865,
      "arency": 7866,
      "average": 7867,
      "inder": 7868,
      "specific": 7869,
      "Ġdocumentation": 7870,
      "ĊĠĠĠĠĠĠ": 7871,
      "Ġpushing": 7872,
      "mid": 7873,
      "Ġsubstitute": 7874,
      "Ġseparately": 7875,
      "Ġabsence": 7876,
      "Ġreceiving": 7877,
      "ocument": 7878,
      "Ġinitiative": 7879,
      "Ġaccessibility": 7880,
      "Ġconfounding": 7881,
      "exp": 7882,
      "Ġanalytical": 7883,
      "Ġgrasp": 7884,
      "Ġraw": 7885,
      "enses": 7886,
      "Ġintim": 7887,
      "Ġcovered": 7888,
      "ĠJune": 7889,
      "Ġconducted": 7890,
      "Ġsubtracting": 7891,
      "Ġfaithfully": 7892,
      "http": 7893,
      "Ġtied": 7894,
      "Ġswitches": 7895,
      "Ġisolation": 7896,
      "arks": 7897,
      "ĠSun": 7898,
      "Ġwarning": 7899,
      "stream": 7900,
      "ĠIT": 7901,
      "Ġcollecting": 7902,
      "util": 7903,
      "elcome": 7904,
      "Ġwidespread": 7905,
      "ĠGreek": 7906,
      "ij": 7907,
      "Ġclin": 7908,
      "Ġemerging": 7909,
      "ĠMean": 7910,
      "Ġ\"))": 7911,
      "Ġspelling": 7912,
      "Ġexplo": 7913,
      "Ġconcaten": 7914,
      "ĠLa": 7915,
      "eration": 7916,
      "Ġdepartments": 7917,
      "days": 7918,
      "times": 7919,
      "Ġtrained": 7920,
      "Ġexcessive": 7921,
      "Ġinstruct": 7922,
      "Ġstuff": 7923,
      "Ġdefines": 7924,
      "Ġstrive": 7925,
      "Ġsensors": 7926,
      "Which": 7927,
      "lined": 7928,
      "non": 7929,
      "Ġelectrical": 7930,
      "unity": 7931,
      "ĠLinkedIn": 7932,
      "conomic": 7933,
      "Ġslipping": 7934,
      "Ġlosing": 7935,
      "Ġprobably": 7936,
      "Ġaddresses": 7937,
      "lick": 7938,
      "ĠRepl": 7939,
      "ĠRead": 7940,
      "Ġca": 7941,
      "Ġculinary": 7942,
      "Ġpassionate": 7943,
      "Ġtheore": 7944,
      "courage": 7945,
      "ATE": 7946,
      "Ġinstitutions": 7947,
      "Ġanomalies": 7948,
      "lig": 7949,
      "rices": 7950,
      "ago": 7951,
      "Ġtangent": 7952,
      "Ġserved": 7953,
      "example": 7954,
      "Ġampl": 7955,
      "Ġguided": 7956,
      "Ġaren": 7957,
      "Ġpsychological": 7958,
      ".*": 7959,
      "Ġaudio": 7960,
      "Ġrelevance": 7961,
      "Ġdistort": 7962,
      "Ġdifferential": 7963,
      "Ġdirections": 7964,
      "Ġmedication": 7965,
      "ĠAut": 7966,
      "Ġoutlier": 7967,
      "IG": 7968,
      "rooms": 7969,
      "Ġsword": 7970,
      "amine": 7971,
      "Ġtackle": 7972,
      "ribed": 7973,
      "Ġflood": 7974,
      "Ġforeign": 7975,
      "Ġamenities": 7976,
      "Ġdifferentiate": 7977,
      "Ġgardening": 7978,
      "ĠAugust": 7979,
      "Ġsurveys": 7980,
      "State": 7981,
      "Ġmarine": 7982,
      "oom": 7983,
      "Extract": 7984,
      "Ġpriority": 7985,
      "grade": 7986,
      "ĠDec": 7987,
      "ĠJanuary": 7988,
      "Ġworkplace": 7989,
      "ĠInit": 7990,
      "Ġturns": 7991,
      "Ġcolon": 7992,
      "TP": 7993,
      "Ġharder": 7994,
      "ecause": 7995,
      "Ġvisibility": 7996,
      "Ġintegrity": 7997,
      "Ġscales": 7998,
      "Ġisolate": 7999,
      "month": 8000,
      "Ġwinning": 8001,
      "Then": 8002,
      "Ġsingular": 8003,
      "uls": 8004,
      "Ġgrown": 8005,
      "ĠAS": 8006,
      "Ġstands": 8007,
      "ocolate": 8008,
      "Ġ`'": 8009,
      "Ġenumerate": 8010,
      "(),": 8011,
      "Ġcalendar": 8012,
      "Ġdecades": 8013,
      "ools": 8014,
      "Ġdispersion": 8015,
      "Ġholid": 8016,
      "security": 8017,
      "Ġhiking": 8018,
      "Ġpurchases": 8019,
      "ĠÏĥ": 8020,
      "\").": 8021,
      "urrent": 8022,
      "plements": 8023,
      "Ġcriticism": 8024,
      "lections": 8025,
      "========": 8026,
      "Ġdecreased": 8027,
      "istical": 8028,
      "During": 8029,
      "ultane": 8030,
      "Ġestate": 8031,
      "ĠShow": 8032,
      "oses": 8033,
      "CTION": 8034,
      "Ð°": 8035,
      "Ġmilk": 8036,
      "Ġdemonstrating": 8037,
      "www": 8038,
      "ĠDay": 8039,
      "Ġtreasure": 8040,
      "gn": 8041,
      "connected": 8042,
      "Ġretire": 8043,
      "Ġrising": 8044,
      "Ġindu": 8045,
      "ĠTw": 8046,
      "chnology": 8047,
      "Ġcenters": 8048,
      "elf": 8049,
      "Ġgift": 8050,
      "filter": 8051,
      "Ġproducing": 8052,
      "efined": 8053,
      "Ġcontributed": 8054,
      "Ġinvaluable": 8055,
      "ĠAtt": 8056,
      "Ġarrangement": 8057,
      "replace": 8058,
      "ĠAir": 8059,
      "Ġspin": 8060,
      "ING": 8061,
      "Ġbow": 8062,
      "folio": 8063,
      "^{\\": 8064,
      "ching": 8065,
      "ĠEuler": 8066,
      "Ġthrill": 8067,
      "Ġnative": 8068,
      "usiness": 8069,
      "Ġ{\"": 8070,
      "sharp": 8071,
      "Ġmansion": 8072,
      "ulative": 8073,
      "PE": 8074,
      "rific": 8075,
      "Ġcats": 8076,
      "Ġauthors": 8077,
      "Ġpull": 8078,
      "Ġfruits": 8079,
      "version": 8080,
      "ĠSan": 8081,
      "Ġrooms": 8082,
      "rospect": 8083,
      "ĠâĪļ(": 8084,
      "Ġrevealed": 8085,
      "Ġaccepted": 8086,
      "Ġaimed": 8087,
      "js": 8088,
      "};": 8089,
      "Par": 8090,
      "Ġhur": 8091,
      "ha": 8092,
      "Ġmechanism": 8093,
      "Ġradio": 8094,
      "Ġuniversal": 8095,
      "Ġapplies": 8096,
      "Ġholes": 8097,
      "Ġimplements": 8098,
      "ĠPol": 8099,
      "Ġsignals": 8100,
      "Ġnumpy": 8101,
      "omb": 8102,
      "Ġtast": 8103,
      "Ġintel": 8104,
      "Ġknight": 8105,
      "direct": 8106,
      "ateful": 8107,
      "Ġaligned": 8108,
      ")?": 8109,
      "Ġsoul": 8110,
      "Ġfossil": 8111,
      "Ġrevision": 8112,
      "Ġring": 8113,
      "orp": 8114,
      "Ġvague": 8115,
      "ĠJuly": 8116,
      "ĠDev": 8117,
      "Ġmarked": 8118,
      "ĠGl": 8119,
      "ii": 8120,
      "rance": 8121,
      "ora": 8122,
      "accur": 8123,
      "umes": 8124,
      "ĠArt": 8125,
      "ena": 8126,
      "Ġvia": 8127,
      "Ġrecycling": 8128,
      "Ġsnippet": 8129,
      "Ġdraws": 8130,
      "Ġkept": 8131,
      "%)": 8132,
      "Ġvertical": 8133,
      "rus": 8134,
      "Ġspring": 8135,
      "Ġencountered": 8136,
      "Ġnumerator": 8137,
      "Ġpatience": 8138,
      "Ġbold": 8139,
      "Ġtermin": 8140,
      "Ġpy": 8141,
      "Ġmere": 8142,
      "Ġsmoother": 8143,
      "apers": 8144,
      "Ġalph": 8145,
      "arsh": 8146,
      "Ġblur": 8147,
      "Ġgauge": 8148,
      "ipse": 8149,
      "Ġmeters": 8150,
      "Ġmolecules": 8151,
      "Ġgrade": 8152,
      "Ġmountains": 8153,
      "Ġrainfall": 8154,
      "ogether": 8155,
      "Ġiconic": 8156,
      "Ġmurder": 8157,
      "car": 8158,
      "aying": 8159,
      "Ġinfluencers": 8160,
      "ham": 8161,
      "Ġnuances": 8162,
      "pathetic": 8163,
      "Ġsnow": 8164,
      "Ġunfor": 8165,
      "Ġleveraging": 8166,
      "Ġfits": 8167,
      "model": 8168,
      "Ġconjunction": 8169,
      "Ġcombines": 8170,
      "Ġseat": 8171,
      "eros": 8172,
      "ĠHR": 8173,
      "ga": 8174,
      "Ġnation": 8175,
      "ĠExamples": 8176,
      "Ġcitizens": 8177,
      "Ġstating": 8178,
      "Ġtraditions": 8179,
      "Ġsteel": 8180,
      "Ġclassical": 8181,
      "Ġobj": 8182,
      "Ġreplic": 8183,
      "ensitive": 8184,
      "idential": 8185,
      "Ġpolitical": 8186,
      "Ġpolar": 8187,
      "Ġclassroom": 8188,
      "Ġdreams": 8189,
      "Ġambiguity": 8190,
      "ĠAc": 8191,
      "Ġbreathtaking": 8192,
      "Ġtexture": 8193,
      "ometric": 8194,
      "road": 8195,
      "Ġexplaining": 8196,
      "Ġmanipulation": 8197,
      "ravel": 8198,
      "eps": 8199,
      "Ġstatistic": 8200,
      "Ġfrequent": 8201,
      "Ġplenty": 8202,
      "Ġdisappoint": 8203,
      "Ġcontradictions": 8204,
      "Ġgest": 8205,
      "Ġsex": 8206,
      "Ġshowed": 8207,
      "het": 8208,
      "riv": 8209,
      "Ġrevisions": 8210,
      "ĠHTML": 8211,
      "chron": 8212,
      "Ġmentor": 8213,
      "Ġcube": 8214,
      "earning": 8215,
      "Ġprivilege": 8216,
      "Ġcere": 8217,
      "ĠIQR": 8218,
      "true": 8219,
      "Ġpublished": 8220,
      "Ġequil": 8221,
      "LT": 8222,
      "Ġimmune": 8223,
      "Ġdefect": 8224,
      "Ġell": 8225,
      "vector": 8226,
      "Ġbiggest": 8227,
      "Ġdf": 8228,
      "Ġpointer": 8229,
      "default": 8230,
      "ĠGive": 8231,
      "Ġsimultane": 8232,
      "Ġbutter": 8233,
      "Ġconvin": 8234,
      "mo": 8235,
      "Ġlooked": 8236,
      "Ġvariations": 8237,
      "sembly": 8238,
      "atin": 8239,
      "Ġnone": 8240,
      "Ġvisited": 8241,
      "create": 8242,
      "falls": 8243,
      "athered": 8244,
      "Ġteachers": 8245,
      "Ġdisconnect": 8246,
      "ĠNA": 8247,
      "Ġanalysts": 8248,
      "Ġbuying": 8249,
      "aria": 8250,
      "Ġdru": 8251,
      "diction": 8252,
      "tion": 8253,
      "Ġgravitational": 8254,
      "Ġtun": 8255,
      "Ġbooking": 8256,
      "Ġvelocity": 8257,
      "Ġmerge": 8258,
      "big": 8259,
      "Ġbits": 8260,
      "ĠFriday": 8261,
      "Ġauthenticity": 8262,
      "Ġexponent": 8263,
      "Ġregul": 8264,
      "Ġtransparency": 8265,
      "Ġjava": 8266,
      "Ġpackaging": 8267,
      "Ġdistant": 8268,
      "ĠEngland": 8269,
      "erver": 8270,
      "Ġadvis": 8271,
      "Ġfurn": 8272,
      "Ġgrab": 8273,
      "Ġthin": 8274,
      "ĠSpe": 8275,
      "ĠSte": 8276,
      "rc": 8277,
      "Ġcash": 8278,
      "ayer": 8279,
      "Ġvan": 8280,
      "Ġmodes": 8281,
      "Ġquotient": 8282,
      "Ġtransformed": 8283,
      "Ġenem": 8284,
      "ecd": 8285,
      "Ġwonderful": 8286,
      "Ġbattery": 8287,
      "Ġsnack": 8288,
      "Ġpremium": 8289,
      "$-": 8290,
      "Ġsharp": 8291,
      "amil": 8292,
      "Log": 8293,
      "aver": 8294,
      "Ġminimizing": 8295,
      "Ġfeaturing": 8296,
      "Ġemployers": 8297,
      "Ġperforms": 8298,
      "*.": 8299,
      "Ġconnecting": 8300,
      "Ġvessel": 8301,
      "Ġrealized": 8302,
      "Ġconverges": 8303,
      "Ġloops": 8304,
      "Ġfrequencies": 8305,
      "Ġperception": 8306,
      "ĠCart": 8307,
      "ĠInstagram": 8308,
      "Ġinhabit": 8309,
      "Ġenhancing": 8310,
      "Ġpredictor": 8311,
      "Ġfails": 8312,
      "Ġplate": 8313,
      "Ġdismiss": 8314,
      "ĠMarch": 8315,
      "ederal": 8316,
      "Ġengineer": 8317,
      "Total": 8318,
      "ĠYear": 8319,
      "ĠEmma": 8320,
      "Ġgrat": 8321,
      "Ġderive": 8322,
      "acher": 8323,
      "Ġcompleting": 8324,
      "Ġvisible": 8325,
      "Net": 8326,
      "ployment": 8327,
      "Ġformulas": 8328,
      "ĠNon": 8329,
      "Ġcowork": 8330,
      "ceptions": 8331,
      "Ġobvious": 8332,
      "Ġnotation": 8333,
      "ĠDetermine": 8334,
      "Sum": 8335,
      "Ġelectron": 8336,
      "pan": 8337,
      "Ġverbs": 8338,
      "Ġanecd": 8339,
      "console": 8340,
      "Ġmechanics": 8341,
      "chain": 8342,
      "Ġbool": 8343,
      "Ġcombinator": 8344,
      "Ġseemingly": 8345,
      "Ġvit": 8346,
      "rim": 8347,
      "}$.": 8348,
      "Ġsegments": 8349,
      "raction": 8350,
      "Ġshares": 8351,
      "try": 8352,
      "Ġdevelopers": 8353,
      "Ġâī¥": 8354,
      "ĠĠĠĠĠĠĠĠĠĠ": 8355,
      "ada": 8356,
      "Ġmatching": 8357,
      "Ġmixed": 8358,
      "Ġdesigning": 8359,
      "angers": 8360,
      "ĠQue": 8361,
      "Ġgenre": 8362,
      "ĠJen": 8363,
      "Ġconsequence": 8364,
      "}$,": 8365,
      "Ġordered": 8366,
      "Ġcompassion": 8367,
      "Ġvacc": 8368,
      "Ġbodies": 8369,
      "outs": 8370,
      "Ġlesson": 8371,
      "she": 8372,
      "ĠGerman": 8373,
      "Ġgalaxy": 8374,
      "Ġinn": 8375,
      "Ġallocation": 8376,
      "ployee": 8377,
      "Ġcircles": 8378,
      "ĠAlthough": 8379,
      "abs": 8380,
      "Ġbucket": 8381,
      "IC": 8382,
      "umps": 8383,
      "Ġiron": 8384,
      "mm": 8385,
      "Ġbranch": 8386,
      "Ġbelievable": 8387,
      "PU": 8388,
      "week": 8389,
      "ĠImagine": 8390,
      "Ġpropose": 8391,
      "Ġrural": 8392,
      "Ġfactorization": 8393,
      "oices": 8394,
      "Ġunpredict": 8395,
      "Ġinviting": 8396,
      "undred": 8397,
      "Element": 8398,
      "Ġconvenience": 8399,
      "ĠUnderstanding": 8400,
      "Ġidiomatic": 8401,
      "Ġconcentration": 8402,
      "sample": 8403,
      "Ġnavigation": 8404,
      "Ġelectricity": 8405,
      "ameter": 8406,
      "cription": 8407,
      "eal": 8408,
      "Ġintuition": 8409,
      "Ġinfluences": 8410,
      "ercial": 8411,
      "grad": 8412,
      "Ġcatal": 8413,
      "Ġjudgment": 8414,
      "Ġregional": 8415,
      "Ġinject": 8416,
      "Ġpanel": 8417,
      "Inf": 8418,
      "Ġproven": 8419,
      "Ġparabola": 8420,
      "Ġcharacterized": 8421,
      "Ġdemographic": 8422,
      "Ġgrateful": 8423,
      "aturally": 8424,
      "Ġtheoretical": 8425,
      "Ġcompound": 8426,
      "ĠPresident": 8427,
      "Ġtemp": 8428,
      "ica": 8429,
      "Ġrepair": 8430,
      "Ġoccurrence": 8431,
      "Ġattached": 8432,
      "ednes": 8433,
      "Ġlib": 8434,
      "Ġfootprint": 8435,
      "vol": 8436,
      "Ġmedicine": 8437,
      "Ġtraveler": 8438,
      "Ġlunch": 8439,
      "Ġpin": 8440,
      "Ġhints": 8441,
      "reed": 8442,
      "Ġbreathing": 8443,
      "Ġboundary": 8444,
      "orrelation": 8445,
      "ĠVari": 8446,
      "Ġcareers": 8447,
      "Ġsacrific": 8448,
      "Ed": 8449,
      "Ġapproaching": 8450,
      "Ġdetermines": 8451,
      "Ġofferings": 8452,
      "height": 8453,
      "Ġretention": 8454,
      "ilde": 8455,
      "Ġequally": 8456,
      "Ġadvoc": 8457,
      "Ġshipping": 8458,
      "Val": 8459,
      "scores": 8460,
      "ĠCO": 8461,
      "Ġguides": 8462,
      "Ġresearching": 8463,
      "Ġrespondents": 8464,
      "Ġnth": 8465,
      "Ġbelieved": 8466,
      "ĠAccording": 8467,
      "Med": 8468,
      "Ġdiscrete": 8469,
      "Ġreadable": 8470,
      "ĠCompany": 8471,
      "kins": 8472,
      "Ġtot": 8473,
      "Ġinductive": 8474,
      "Ġbelief": 8475,
      "Ġdistinguish": 8476,
      "Hope": 8477,
      "Ġisolated": 8478,
      "Ġcircular": 8479,
      "Ġdive": 8480,
      "ptember": 8481,
      "Ġoptimized": 8482,
      "Ġtwe": 8483,
      "ologist": 8484,
      "Ġintensity": 8485,
      "Ġast": 8486,
      "Avoid": 8487,
      "Ġschol": 8488,
      "Ġ$(": 8489,
      "Ġnuclear": 8490,
      "soft": 8491,
      "otten": 8492,
      "Ġguarantee": 8493,
      "gamma": 8494,
      "Ġindicators": 8495,
      "oday": 8496,
      "Ġpm": 8497,
      "Ġdress": 8498,
      "abc": 8499,
      "Ġhierarch": 8500,
      "SV": 8501,
      "Ġpure": 8502,
      "Ġirre": 8503,
      "Ġap": 8504,
      "Ġcurves": 8505,
      "Ġmanagers": 8506,
      "ferential": 8507,
      "Ġswim": 8508,
      "Ġmisu": 8509,
      "tim": 8510,
      "men": 8511,
      "sequence": 8512,
      "ĠChoose": 8513,
      "Ġweights": 8514,
      "Ġflights": 8515,
      "ushed": 8516,
      "Ġorganizing": 8517,
      "Ġfavorable": 8518,
      "bin": 8519,
      "idity": 8520,
      "Ġpackages": 8521,
      "LA": 8522,
      "Soc": 8523,
      "ythag": 8524,
      "ega": 8525,
      "Ġheritage": 8526,
      "incipal": 8527,
      "Ġbike": 8528,
      "Ġcountless": 8529,
      "Ġsums": 8530,
      "plicity": 8531,
      "Ġfinished": 8532,
      "charge": 8533,
      "acter": 8534,
      "Ġdownload": 8535,
      "Absolute": 8536,
      "Ġcoordinate": 8537,
      "ategory": 8538,
      "Ġreads": 8539,
      "Ġtechnological": 8540,
      "Ġsubstring": 8541,
      "Ġsystematic": 8542,
      "Ġbars": 8543,
      "cember": 8544,
      "Ġpil": 8545,
      "onday": 8546,
      "}{\\": 8547,
      "Ġbutton": 8548,
      "mazon": 8549,
      "csharp": 8550,
      "Ġclever": 8551,
      "Ġhouses": 8552,
      "escribe": 8553,
      "Ġmatrices": 8554,
      "Ġoperate": 8555,
      "Ġlambda": 8556,
      "Ġfram": 8557,
      "area": 8558,
      "Ġourselves": 8559,
      "Ġnaturally": 8560,
      "Ġfourth": 8561,
      "Method": 8562,
      "effective": 8563,
      "Ġcritically": 8564,
      "Ġhusband": 8565,
      "Ġreporting": 8566,
      "ĠAustral": 8567,
      "Ġinvite": 8568,
      "rum": 8569,
      "Ġunable": 8570,
      "Ġmilestones": 8571,
      "Ġju": 8572,
      "Ġconverting": 8573,
      "Ġexecute": 8574,
      "Output": 8575,
      "Ġdiagonal": 8576,
      "Comb": 8577,
      "alled": 8578,
      "(*": 8579,
      "minute": 8580,
      "Ġarrived": 8581,
      "ĠWhether": 8582,
      "ĠLine": 8583,
      "Ġending": 8584,
      "kers": 8585,
      "Ġdot": 8586,
      "Ġartwork": 8587,
      "ĠUsed": 8588,
      "Ġiterating": 8589,
      "Ġunch": 8590,
      "Char": 8591,
      "spe": 8592,
      "well": 8593,
      "Ġproduces": 8594,
      "ĠHy": 8595,
      "cat": 8596,
      "Ġintention": 8597,
      "ateral": 8598,
      "unt": 8599,
      "ĊĊĠĠĠĠĠĠĠĠĠĠĠ": 8600,
      "ĠApril": 8601,
      "bound": 8602,
      "Ġtrail": 8603,
      "Ġweekend": 8604,
      "Ġce": 8605,
      "ĠChina": 8606,
      "Ġincomplete": 8607,
      "ĠVal": 8608,
      "Ġru": 8609,
      "Other": 8610,
      "parse": 8611,
      "Ġsector": 8612,
      "Ġmig": 8613,
      "Ġgaze": 8614,
      "ĠPat": 8615,
      "Ġdevast": 8616,
      "Ġscenes": 8617,
      "Ġredundant": 8618,
      "ĠTotal": 8619,
      "uction": 8620,
      "Ġsalt": 8621,
      "Ġpursuing": 8622,
      "bies": 8623,
      "Ġemployment": 8624,
      "Ġadjacent": 8625,
      "Ġcontrolling": 8626,
      "Ġfold": 8627,
      "Ġsending": 8628,
      "Ġperceived": 8629,
      "Ġhandles": 8630,
      "Ġ([": 8631,
      "Ġemployed": 8632,
      "Ġbiod": 8633,
      "tee": 8634,
      "Ġtreatments": 8635,
      "Ġassertions": 8636,
      "duplicates": 8637,
      "Day": 8638,
      "brid": 8639,
      "Ġbakery": 8640,
      "Ġpreced": 8641,
      "Ġhonor": 8642,
      "Ġpromise": 8643,
      "rency": 8644,
      "Ġmine": 8645,
      "Ġcyber": 8646,
      "čĊĠ": 8647,
      "[-": 8648,
      "Ġworn": 8649,
      "Ġaccidents": 8650,
      "banana": 8651,
      "ooked": 8652,
      "defined": 8653,
      "Research": 8654,
      "Ġcomposed": 8655,
      "ĠRuss": 8656,
      "datetime": 8657,
      "Ġtrick": 8658,
      "Ġdense": 8659,
      "iforn": 8660,
      "Ġpride": 8661,
      "oxide": 8662,
      "delta": 8663,
      "ifaceted": 8664,
      "Ġsophisticated": 8665,
      "Ġfro": 8666,
      "natural": 8667,
      "anches": 8668,
      "Ġidentical": 8669,
      "useum": 8670,
      "Ġbuzz": 8671,
      "[:": 8672,
      "fitting": 8673,
      "ednesday": 8674,
      "Answer": 8675,
      "Ġniche": 8676,
      "sect": 8677,
      "Ġaccounting": 8678,
      "Ġmissed": 8679,
      "deg": 8680,
      "Ġagent": 8681,
      ">>.": 8682,
      "Ref": 8683,
      "Ġdistrict": 8684,
      "Ġwindows": 8685,
      "Ġtur": 8686,
      "Ġresponding": 8687,
      "csv": 8688,
      "Ġwish": 8689,
      "Ġsimplicity": 8690,
      "Ġrespective": 8691,
      "Ġaest": 8692,
      "Act": 8693,
      "ythagorean": 8694,
      "Ġcharity": 8695,
      "Ġaudiences": 8696,
      "cout": 8697,
      "Ġclick": 8698,
      "that": 8699,
      "Ġprotocols": 8700,
      "Ġspons": 8701,
      "elements": 8702,
      "Ġrum": 8703,
      "Ġformats": 8704,
      "ĠOff": 8705,
      "Ġinstant": 8706,
      "Ġdanger": 8707,
      "());": 8708,
      "Test": 8709,
      "Ġentering": 8710,
      "Ġfailed": 8711,
      "Ġsettle": 8712,
      "roups": 8713,
      "Ġsenior": 8714,
      "Ġsentiment": 8715,
      "lecting": 8716,
      "Ġintrospect": 8717,
      "Ġneither": 8718,
      "Ġcubic": 8719,
      "event": 8720,
      "arding": 8721,
      "Ġhypotheses": 8722,
      "olf": 8723,
      "Ġmolec": 8724,
      "Ġautonomy": 8725,
      "sided": 8726,
      "Ġsle": 8727,
      "Ġbytes": 8728,
      "Ġgun": 8729,
      "inu": 8730,
      "ĠWil": 8731,
      "Just": 8732,
      "Ġtom": 8733,
      "Ġvulnerability": 8734,
      "Ġspiritual": 8735,
      "Ġintellect": 8736,
      "fty": 8737,
      "Ġcommercial": 8738,
      "ĠProgram": 8739,
      "Ġlegal": 8740,
      "Ġfuels": 8741,
      "adow": 8742,
      "ĠHel": 8743,
      "ifornia": 8744,
      "Ġeast": 8745,
      "Ġtransactions": 8746,
      "Ġcrisis": 8747,
      "ĠStandard": 8748,
      "Ġexpanding": 8749,
      "Ġdimension": 8750,
      "Ġusual": 8751,
      "Ġsuccesses": 8752,
      "Ġbreakdown": 8753,
      "urable": 8754,
      "agrams": 8755,
      "Ġportfolio": 8756,
      "Ġexhibits": 8757,
      "Dec": 8758,
      "Âł": 8759,
      "Ġcodes": 8760,
      "olds": 8761,
      "omy": 8762,
      "Ġath": 8763,
      "Ġescal": 8764,
      ")!": 8765,
      "Ġburden": 8766,
      "IV": 8767,
      "Ġalert": 8768,
      "ette": 8769,
      "hour": 8770,
      "Ġsimultaneously": 8771,
      "Ab": 8772,
      "Ġcher": 8773,
      "ultip": 8774,
      "arest": 8775,
      "Ġopened": 8776,
      "ĠSpanish": 8777,
      "Ġproportional": 8778,
      "MP": 8779,
      "Ġrequiring": 8780,
      "Ġwooden": 8781,
      "Ġmovies": 8782,
      "awareness": 8783,
      "unit": 8784,
      "Ġpounds": 8785,
      "Ġflag": 8786,
      "^\\": 8787,
      "Ġdramatic": 8788,
      "Ġsorts": 8789,
      "Ġdeals": 8790,
      "emory": 8791,
      "Ġmarbles": 8792,
      "IF": 8793,
      "Ġparks": 8794,
      "Ġthousands": 8795,
      "estamp": 8796,
      "ractice": 8797,
      "Ġcondens": 8798,
      "Ġtickets": 8799,
      "Ġcontempor": 8800,
      "Ġsor": 8801,
      "Ġworst": 8802,
      "Le": 8803,
      "counts": 8804,
      "ĠFeb": 8805,
      "onal": 8806,
      "Ġenjoyed": 8807,
      "Ġpolitics": 8808,
      "Ġtiss": 8809,
      "Ġmast": 8810,
      "Ġdelays": 8811,
      "ĠNet": 8812,
      "uman": 8813,
      "Ġ{\\": 8814,
      "Ġyoga": 8815,
      "ĠOct": 8816,
      "Ġsilence": 8817,
      "Ġcontents": 8818,
      "Ġfarmers": 8819,
      "achine": 8820,
      "ĠLog": 8821,
      "Ġtexts": 8822,
      "Ġcontradiction": 8823,
      "icular": 8824,
      "depth": 8825,
      "Ġpartnering": 8826,
      "ĠYes": 8827,
      "ĠDefine": 8828,
      "aker": 8829,
      "Ġmultifaceted": 8830,
      "Ġwhisper": 8831,
      "Ġfloating": 8832,
      ")))": 8833,
      "Ġfrag": 8834,
      "Hand": 8835,
      "Ġnutrients": 8836,
      "ĠClass": 8837,
      "Ġdifficulties": 8838,
      "Ġfrustration": 8839,
      "igious": 8840,
      "ĠSal": 8841,
      "ĠEstablish": 8842,
      "Ġtreated": 8843,
      "Ġticket": 8844,
      "ĠNULL": 8845,
      "Ġfaint": 8846,
      "atell": 8847,
      "orpor": 8848,
      "ĠPythagorean": 8849,
      "ĠShare": 8850,
      "Ġmysteries": 8851,
      "frequ": 8852,
      "Ġpeers": 8853,
      "Ġevolving": 8854,
      "Ġformatted": 8855,
      "Ġphilosophy": 8856,
      "Ġlun": 8857,
      "agree": 8858,
      "Ġemerge": 8859,
      "Ġanticipation": 8860,
      "AP": 8861,
      "TH": 8862,
      "...\"": 8863,
      "Mat": 8864,
      "represent": 8865,
      "Ġhundred": 8866,
      "ensor": 8867,
      "Ġsetbacks": 8868,
      "Ġhall": 8869,
      "Ġeight": 8870,
      "Ġdrivers": 8871,
      "Ġaccountability": 8872,
      "Ġmask": 8873,
      "page": 8874,
      "db": 8875,
      "ĠUK": 8876,
      "Absolutely": 8877,
      "anguage": 8878,
      "Ġadministr": 8879,
      "Ġinaccur": 8880,
      "Ġqualities": 8881,
      "query": 8882,
      "ĠConference": 8883,
      "Ġcovers": 8884,
      "Ġsymbols": 8885,
      "Ġinterpreted": 8886,
      "bur": 8887,
      "Ġbind": 8888,
      "Ġendless": 8889,
      "Ġreinforce": 8890,
      "icago": 8891,
      "support": 8892,
      "Mean": 8893,
      "ÌĦ": 8894,
      "Ġdecorator": 8895,
      "Ġeggs": 8896,
[...]
